[PAD]
[UNK]
[CLS]
[SEP]
[MASK]
!
"
#
$
%
&
'
(
)
*
+
,
-
.
/
0
1
2
3
4
5
6
7
8
9
:
;
<
=
>
?
@
A
B
C
D
E
F
G
H
I
J
K
L
M
N
O
P
Q
R
S
T
U
V
W
X
Y
Z
[
\
]
^
_
`
a
b
c
d
e
f
g
h
i
j
k
l
m
n
o
p
q
r
s
t
u
v
w
x
y
z
{
|
}
~
¡
¢
£
¤
¥
¦
§
¨
©
ª
«
¬
®
¯
°
±
²
³
´
µ
¶
·
¸
¹
º
»
¼
½
¾
¿
À
Á
Â
Ã
Ä
Å
Æ
Ç
È
É
Ê
Ë
Ì
Í
Î
Ï
Ð
Ñ
Ò
Ó
Ô
Ö
×
Ø
Ú
Û
Ü
Þ
ß
à
á
â
ã
ä
å
æ
ç
è
é
ê
ë
ì
í
î
ï
ð
ñ
ò
ó
ô
õ
ö
÷
ø
ù
ú
û
ü
ý
ÿ
ā
Ă
ă
Ą
ą
ć
Č
č
Đ
đ
ē
ė
ę
ě
ğ
ī
İ
ı
ł
ń
ň
ō
ő
œ
ř
Ś
ś
Ş
ş
Š
š
ţ
ū
ů
Ÿ
ż
Ž
ž
ſ
ƒ
ơ
ư
ș
ț
ə
ˆ
˜
́
̃
̈
̶
;
Α
Δ
Ε
Ι
Κ
Μ
Ο
Π
Σ
Τ
Φ
Ω
ά
έ
ή
ί
α
β
γ
δ
ε
ζ
η
θ
ι
κ
λ
μ
ν
ξ
ο
π
ρ
ς
σ
τ
υ
φ
χ
ω
ό
ύ
ώ
Ђ
Ў
А
Б
В
Г
Д
Е
Ж
З
И
К
Л
М
Н
О
П
Р
С
Т
У
Ф
Х
Ц
Ч
Ш
Э
Я
а
б
в
г
д
е
ж
з
и
й
к
л
м
н
о
п
р
с
т
у
ф
х
ц
ч
ш
щ
ъ
ы
ь
э
ю
я
ё
є
і
ї
ա
ն
א
ב
ג
ד
ה
ו
ח
ט
י
כ
ל
ם
מ
ן
נ
ס
ע
פ
צ
ק
ר
ש
ת
،
ء
آ
أ
إ
ئ
ا
ب
ة
ت
ث
ج
ح
خ
د
ذ
ر
ز
س
ش
ص
ض
ط
ع
غ
ـ
ف
ق
ك
ل
م
ن
ه
و
ى
ي
َ
ْ
پ
چ
ک
گ
ی
ं
क
ग
च
ज
त
द
न
प
ब
म
य
र
ल
व
स
ह
ा
ि
ी
ु
े
ो
्
ন
র
া
ি
ে
্
்
്
ก
ค
ง
จ
ด
ต
ท
น
บ
ป
พ
ม
ย
ร
ล
ว
ส
ห
อ
ะ
ั
า
ิ
ี
เ
แ
ไ
่
้
์
ა
ṇ
ṛ
ṣ
ạ
ả
ấ
ậ
ế
ệ
ố
ộ
ớ
ờ
‐
‑
‒
–
—
―
‖
‘
’
‚
“
”
„
†
‡
•
…
‰
′
″
‹
›
⁄
€
⃣
℃
№
℗
™
←
↑
→
↓
⇒
−
∙
√
∞
≤
≥
─
│
└
├
█
■
▪
▫
▬
▲
▶
▷
▸
►
▼
◄
○
●
◦
☀
★
☆
☎
☺
♀
♂
♡
♣
♥
♦
♪
♫
⚡
⚽
✅
✓
✔
✨
❌
❤
➖
➡
➤
➨
⠀
⭐
、
。
《
》
「
」
【
】
あ
い
う
え
お
か
が
き
く
け
こ
ご
さ
し
す
せ
そ
た
だ
ち
っ
つ
て
で
と
ど
な
に
の
は
ま
み
め
も
や
よ
ら
り
る
れ
わ
を
ん
ア
ィ
イ
ウ
ェ
エ
オ
カ
キ
ク
グ
コ
サ
シ
ジ
ス
ズ
セ
タ
ダ
チ
ッ
ツ
テ
デ
ト
ド
ナ
ニ
バ
パ
ビ
フ
ブ
プ
マ
ミ
ム
メ
モ
ャ
ュ
ョ
ラ
リ
ル
レ
ロ
ン
・
ー
一
万
三
上
下
不
与
世
业
东
个
中
为
主
么
之
乐
也
买
了
争
事
二
于
五
交
产
京
人
什
今
他
代
以
们
件
会
体
作
使
保
信
元
光
免
入
全
公
六
关
内
出
分
利
到
制
前
力
加
动
化
北
区
十
南
原
县
及
发
取
可
台
号
司
合
同
名
后
吗
和
品
商
器
四
回
国
图
在
地
场
坛
城
場
外
多
大
天
奖
女
好
如
姐
子
学
安
官
定
宝
实
客
家
对
小
少
就
展
山
工
市
平
年
库
店
度
建
开
式
当
录
彩
影
得
微
心
快
怎
性
情
意
感
成
我
所
手
技
投
报
提
播
教
数
文
料
新
方
日
时
明
是
時
更
最
月
有
服
期
本
机
来
果
正
比
民
水
法
注
活
海
港
游
点
爱
片
版
牌
物
特
王
玩
现
球
理
生
用
田
电
画
白
的
目
直
相
看
県
真
知
码
社
神
票
福
科
站
第
等
算
管
精
系
红
线
经
结
网
美
老
者
肖
能
自
色
花
行
表
西
要
规
视
解
计
论
说
贸
费
资
车
载
过
这
进
通
道
部
都
里
重
金
钱
长
間
门
院
集
霸
面
频
香
马
高
黄
다
이
ﬁ
ﬂ
️
！
（
）
，
：
￼
🇨
🇪
🌟
🎉
🏻
🏼
🏽
👇
👉
👌
👍
👏
💃
💋
💕
💖
💙
💚
💜
💥
💪
📲
🔝
🔥
😀
😁
😂
😅
😆
😉
😊
😋
😍
😎
😘
😛
😱
🙁
🙂
🙌
🙏
🤔
🤗
🤣
##i
##k
##o
##t
##e
##p
##u
##n
##a
##r
##l
##s
##d
##c
##h
##b
##ü
##m
##L
##V
##C
##I
##K
##U
##T
##E
##Y
##D
##A
##q
##f
##z
##7
##8
##2
##0
##1
##3
##w
##Z
##N
##6
##5
##x
##M
##g
##ó
##v
##y
##O
##F
##S
##9
##P
##í
##j
##è
##а
##р
##к
##т
##и
##н
##г
##é
##4
##R
##ú
##á
##ñ
##е
##ц
##м
##B
##Ó
##J
##ì
##́
##É
##Q
##´
##W
##に
##な
##っ
##て
##き
##ま
##し
##た
##Ü
##д
##ш
##G
##X
##H
##Á
##ג
##ן
##п
##у
##щ
##Ñ
##£
##ง
##แ
##ม
##้
##จ
##ะ
##ไ
##ด
##ร
##ั
##บ
##ก
##า
##ส
##น
##ย
##ิ
##ท
##ี
##่
##เ
##พ
##â
##€
##ş
##ı
##ă
##タ
##ッ
##フ
##が
##お
##ト
##イ
##レ
##リ
##ー
##ム
##の
##ご
##ë
##ä
##ç
##о
##з
##й
##с
##อ
##ต
##ค
##ว
##ป
##Ă
##º
##⭐
##️
##ا
##ل
##م
##س
##ت
##ش
##ف
##ي
##ж
##Â
##ī
##└
##ه
##ر
##ن
##α
##ν
##ι
##τ
##ά
##ρ
##デ
##ィ
##ア
##λ
##ω
##ς
##أ
##خ
##د
##►
##ů
##ï
##Ã
##ƒ
##Æ
##¬
##š
##か
##わ
##り
##い
##と
##ん
##│
##る
##は
##Ú
##ř
##ě
##™
##ã
##を
##®
##ż
##©
##¨
##°
##ø
##в
##Í
##ė
##Š
##Г
##à
##ª
##ח
##ל
##י
##פ
##ب
##Т
##В
##К
##ő
##ч
##ö
##🏽
##³
##ъ
##î
##→
##ю
##х
##ś
##ć
##č
##ה
##ص
##و
##ﬁ
##め
##ラ
##テ
##ン
##グ
##ど
##サ
##¢
##Ò
##Ê
##く
##も
##で
##¦
##ь
##я
##л
##ы
##˜
##γ
##μ
##ο
##π
##η
##θ
##ύ
##ū
##إ
##ء
##ة
##̈
##♥
##Ä
##Ÿ
##ù
##ł
##ğ
##İ
##δ
##æ
##å
##❤
##ф
##ε
##σ
##ό
##А
##б
##М
##Б
##И
##ブ
##ル
##メ
##ク
##−
##ר
##נ
##ý
##ň
##Û
##ד
##ו
##🏻
##👏
##ô
##ス
##チ
##ャ
##Ш
##Л
##ם
##œ
##ę
##َ
##ض
##µ
##ξ
##ί
##²
##🙌
##💪
##द
##र
##õ
##क
##त
##ा
##ダ
##シ
##û
##▪
##Ö
##Ì
##ō
##ā
##×
##ê
##こ
##あ
##ق
##ョ
##キ
##ビ
##ズ
##Ą
##エ
##ز
##ž
##😅
##ї
##Р
##ห
##👉
##Ø
##±
##♂
##─
##¹
##パ
##●
##プ
##κ
##ò
##☆
##¥
##Ў
##έ
##Ђ
##э
##バ
##̃
##ع
##ジ
##ナ
##Я
##Ж
##ˆ
##À
##ב
##ת
##オ
##ē
##С
##Ф
##う
##す
##ि
##न
##े
##😘
##セ
##れ
##ニ
##ド
##ή
##Ε
##Π
##Ι
##Κ
##Ο
##Ω
##Α
##і
##ロ
##○
##★
##व
##्
##ह
##💙
##や
##さ
##だ
##💖
##¸
##च
##ی
##Δ
##Σ
##け
##Ð
##マ
##💜
##✨
##🙏
##์
##گ
##ذ
##ち
##ج
##カ
##υ
##ё
##ك
##צ
##ら
##È
##☀
##ﬂ
##ウ
##¾
##ק
##ṛ
##ث
##Đ
##Å
##ն
##ա
##ą
##ं
##य
##つ
##♪
##♫
##ấ
##Ë
##せ
##モ
##Д
##Ц
##О
##Н
##Е
##÷
##ώ
##χ
##ș
##✔
##غ
##ט
##א
##≤
##🔥
##🏼
##ń
##ล
##ি
##্
##ে
##ß
##ح
##Х
##ी
##✓
##ơ
##▬
##ṣ
##ـ
##そ
##ミ
##ュ
##̶
##ə
##⃣
##ţ
##म
##ु
##😍
##コ
##Ç
##ð
##¼
##ț
##◄
##מ
##み
##よ
##├
##ע
##🤗
##👌
##Ï
##Э
##💋
##ạ
##♡
##ग
##स
##ư
##ェ
##்
##🔝
##پ
##Ô
##ط
##ک
##♀
##ס
##כ
##प
##ſ
##🇨
##이
##🎉
##➡
##ज
##є
##ა
##😱
##↓
##😉
##⠀
##З
##🇪
##ो
##█
##র
##്
##😊
##😛
##다
##え
##⇒
##ल
##Ч
##Ž
##½
##😁
##😂
##ờ
##ả
##😀
##⚡
##💃
##φ
##ى
##💕
##া
##ন
##Τ
##Μ
##β
##ÿ
##💥
##¤
##▫
##П
##Č
##đ
##ζ
##👍
##😋
##☺
##ש
##ْ
##ツ
##У
##آ
##➖
##😆
##℃
##■
##⁄
##✅
##↑
##√
##ṇ
##ब
##⚽
##💚
##Î
##≥
##¯
##№
##چ
##📲
##ớ
##🤔
##▷
##ế
##Þ
##ộ
##ئ
##ố
##◦
##♣
##￼
##🌟
##🙂
##🤣
##ệ
##😎
##♦
##▶
##Φ
##👇
##Ş
##∙
##❌
##∞
##←
##▼
##🙁
##☎
##ậ
##➤
##Ś
##℗
##➨
##▸
##▲
de
##os
##en
##er
##ar
##es
##as
##on
##ci
##or
##ue
##an
##ad
la
##al
en
que
##st
##ent
el
##ic
con
un
##ón
##id
##in
##om
##re
##ra
##ro
se
##ti
##aci
##am
es
##ec
los
par
##do
est
in
su
##te
##to
##un
##ol
del
##is
##ta
com
##ado
##em
al
##ri
##ab
por
las
re
##le
para
##ente
##ación
una
no
##di
##ía
##il
##de
##ul
##it
pro
##res
##ac
##ist
per
cu
##ás
##idad
##ien
##ones
##el
##ur
##ción
##ter
##tr
##io
lo
##ada
me
##mp
##lo
##uc
##od
des
##ia
##ir
ac
##la
##ici
##ier
##go
##ient
##ica
##iz
##im
##ues
##ando
##tiv
como
##ig
##tos
ex
##oc
##ales
##enci
más
##qu
##ido
##orm
##tu
di
##que
##aj
El
##us
##ob
##ados
##tor
ha
##ico
##ran
ser
##án
##da
##uer
an
La
##iv
##gu
##ante
##se
##po
##tra
si
##dad
##ib
##um
##per
tra
##tro
##tes
##tar
res
comp
##mo
##ión
En
le
##ez
##ero
##ador
ap
##ten
pue
##ios
##iento
##era
##amb
20
pre
##encia
ten
sus
##ida
##bl
##oci
##ap
##ma
as
##tas
##én
pr
ma
##uy
##ho
##amos
##rec
qu
rec
##amente
##ras
Est
##tre
esp
hac
este
##ed
##onal
ar
hab
##aciones
##añ
añ
dis
tod
man
to
imp
##gun
##at
##gar
pero
##emos
sin
##rim
##ru
pres
##ara
cas
tien
te
Es
##eg
##adas
##obre
ver
pers
##tros
son
##és
##duc
enc
##ambi
##les
##aliz
esta
pas
##ens
##uev
pod
ti
##fer
##ento
inter
##ca
##ores
##entes
##ver
##co
Un
##ort
##los
##ina
sobre
##ana
car
In
sol
lle
##emp
entre
##las
##ora
Con
##cul
mis
##form
am
##lan
##ario
##ie
##ust
ob
##icos
pa
cons
##cia
emp
##ciones
##ces
muc
nos
nues
esc
deb
##icas
ya
##ch
ad
##mente
##bre
mi
##eci
muy
##baj
##ga
tu
201
##if
sal
##ud
##cl
form
todo
##za
##ambién
##enta
##eces
pos
cre
##pon
##jo
col
##end
mo
##no
##oy
ab
cor
prim
##ún
nuev
tan
mej
##ona
##mos
##et
Al
##cip
fin
##aba
mar
##tivo
##ano
##ías
##ce
##av
trabaj
##je
##fici
##min
##ut
está
##til
##uen
##idades
##tura
##ís
##ias
##og
##udi
##ín
##eb
también
gran
##idos
##lar
##almente
##antes
##00
años
##den
cal
hay
fue
prop
medi
exp
##asta
##ha
##rg
Los
##so
##ista
puede
desde
##itu
Se
ni
sig
No
##fec
##ub
cuando
##amiento
##able
hacer
##jer
##cion
##arios
##lic
##des
dos
cual
##me
##ema
##esti
##endo
Com
tiene
todos
don
##ino
##rá
##rib
De
##gra
##ay
##aron
##par
##ros
##tal
cos
hasta
##pos
reg
Por
mun
##ven
##ener
##pe
cam
##ít
neces
##ing
fuer
ter
mejor
han
##ita
person
19
lu
may
##ño
deci
donde
bien
can
##ará
inform
algun
##entos
pe
parte
##tiva
##quier
##gen
##na
##hos
gra
##tras
ca
produc
##ito
##ba
##lam
##dos
fun
##eros
desc
##teri
##iendo
men
buen
##iones
ch
Si
porque
##mb
lib
##op
oc
##ult
vez
##gr
##cias
##adores
##empo
##arse
##ve
Mar
##uel
pol
cada
así
cap
mil
soci
##tir
An
##acional
##ja
realiz
tiempo
sab
forma
pu
op
##iu
##ícul
serv
cer
##cio
Re
##zo
##pañ
desp
ev
##qui
##omb
día
##ren
tran
uno
##arro
rep
##ular
##iudad
##urante
cont
##unto
##ían
##ot
año
##anos
##ers
##nos
##oco
inv
San
##eo
cl
##lti
vida
ah
dic
contra
us
##ion
##erv
perm
inst
especi
##miento
##ér
llev
##gos
incl
##ió
##itar
##con
empres
##idas
##mpl
au
Las
##icación
rel
##ena
##ura
##ismo
##ies
##alidad
mu
gener
##ilidad
##mas
##tivos
hace
##emás
mismo
personas
##ea
prof
##ición
ay
##arrol
##iente
Ch
Des
segu
##ible
da
sec
of
##der
##úbl
bas
lugar
seg
mayor
otros
##por
##uego
##empre
##pec
comun
const
mas
import
era
país
reci
direc
trans
mom
min
servici
As
Me
##yec
ciudad
##uent
hec
##ientos
actu
plan
##jos
##incip
den
##xim
##ord
ju
pla
mundo
val
##éc
##tica
dist
difer
mucho
##aje
tanto
últi
##dic
mes
viv
solo
están
##ece
##up
##vers
sent
org
siempre
vis
Para
encon
conf
##tel
Pro
princip
##ués
##erc
pues
##tic
##az
desarrol
##ólo
##acion
eso
##unque
##ombre
durante
##he
trabajo
quien
ej
tener
les
cab
pon
##emas
dej
##ños
##du
util
pes
##ton
hist
##óm
her
co
10
##vo
##rig
200
quier
##ite
baj
equi
##oria
##amil
dest
cuenta
##anz
##ña
cent
##vi
estudi
##vis
##ruc
##das
##trar
##ine
ese
##argo
inc
Le
##has
caso
##istas
##encias
##uro
otro
##entar
cualquier
algo
##ecu
vol
##tado
bus
menos
mujer
Car
##ceso
##tores
Ad
llam
##emente
poco
tras
tar
tom
yo
super
sido
encuent
##ancia
nuestro
pel
##eza
haci
##man
exper
Cu
##ús
momento
##fic
##car
hor
fal
pl
hi
estos
##cel
utiliz
esper
compr
gust
sea
##ene
mon
pueden
Ar
sist
inf
mal
podr
##ierno
apar
proyec
todas
##pa
Pero
def
##gua
##ticip
##ific
famil
##aniz
nuevo
##teg
profes
##ola
##cios
nuestra
##ural
qué
##uras
hum
probl
##paña
tipo
ne
##íst
##endi
##ivers
información
##embre
activ
có
estar
trav
polít
##tis
públ
emb
##tido
había
antes
tal
ahora
manera
##rist
esto
poder
##tec
pi
##uso
derec
##quel
publ
días
primer
##cal
##vil
ide
otra
obje
##ern
##ientes
sub
dar
tres
var
primera
##pues
después
tienen
comple
hecho
sólo
ag
##oca
he
gru
##uda
aunque
##erg
##omin
##olog
decir
inici
##ío
Su
elec
##ución
##imiento
gan
ref
conoc
Qu
esa
##ital
##tico
or
segun
va
##aban
través
Este
amb
##ác
##cil
##quí
##aria
##tamente
Lo
particip
gu
unos
ellos
ve
##ual
pens
hoy
##rad
##and
conoci
ins
nada
##óg
##obierno
otras
##ivel
fu
cr
DE
##sión
ir
Una
exist
Par
##ientras
entr
pal
##itos
peque
##tivas
15
conv
progra
aquel
fr
present
##oto
efec
##iar
situ
casa
af
doc
recib
respon
tend
personal
##oso
señ
##ración
contin
él
aplic
av
##orte
ofrec
nivel
##ior
##vid
cier
##ril
apro
##inas
camb
##iencia
lleg
estado
##tan
econ
##ieron
sino
##ER
toda
##ería
estas
12
##CI
organiz
sem
##imos
mad
##eron
##ES
##gres
Sal
##duci
##eno
edi
Ac
##anza
result
##idente
además
ven
qued
debe
##und
art
##cep
mill
cosas
18
##ep
##tación
sigu
muchos
##ál
##dia
##ial
##ag
autor
##ard
sistema
##ider
ante
sí
verdad
será
##ble
ún
dem
pri
##ecer
##ender
##eta
conc
##dida
comer
dise
##uridad
##ip
pasado
ejemp
Esta
##minist
ind
##úm
##tener
##adora
nat
cómo
##ulo
merc
bar
equipo
##ág
##uerdo
Col
interes
##terior
##ant
datos
medio
España
algunos
quer
##zar
##edad
importante
##écn
##rar
ella
##OS
##quil
##ele
##sa
30
##adr
prom
historia
rev
Sin
compar
san
Ex
web
repres
##AR
ho
os
##va
##uros
empresa
Cas
nueva
##tención
##sos
tec
##untos
##inos
##ables
mientras
intern
calidad
nuestros
millones
##tac
##estig
gente
##ículo
##all
mod
##ór
final
##EN
Inter
##gas
##segu
horas
recon
##orn
hacia
dijo
##eder
11
contro
##mar
igu
ban
veces
##sta
Bar
via
##rado
cul
ayud
diferentes
##ON
##log
dentro
estaba
muchas
españ
sex
##ología
servicios
##abor
prov
ima
norm
##tam
##tó
llegar
según
##acio
uso
##ok
Ju
##AS
persona
##avor
misma
núm
agua
compañ
##íf
servicio
ello
embargo
##osa
aquí
sue
grupo
aut
##eras
000
##cional
ofici
usu
pan
int
Gu
##gan
pró
tus
distin
##lu
continu
##ide
##inar
##rir
##yo
##oles
Como
##AN
mujeres
##cu
social
lab
dispon
disf
##ional
Además
##amp
haber
má
proceso
vi
##acidad
##uela
##atro
ley
productos
pregun
##icip
Di
##ula
pad
##ono
clas
##cos
cin
posib
temp
favor
oper
ro
##ortun
ejemplo
##ima
cuer
consider
##itas
noso
técn
##ológ
##ill
jug
##anto
encontrar
##ala
##áb
##ental
dec
Ma
general
##che
mé
##unca
luego
grandes
##uch
##ric
##año
##tio
sel
leg
espec
##isión
##apa
em
##abl
neg
desarrollo
##torio
fueron
proyecto
posible
##ex
##ya
cur
##iedad
##dio
##illa
##emb
punto
casi
##ge
##jas
##cas
##ela
##tante
clar
bajo
##atal
investig
##sted
nosotros
próxim
trad
salud
sac
muer
conocer
##pecto
apo
dep
##AL
##cial
##oma
gracias
##iso
##ria
##tonces
##rea
enf
##ral
condi
din
##unci
Val
##lor
##estión
##rip
educ
color
##imo
et
##ajes
##entación
buena
Man
valor
##ám
semana
##OR
nombre
Nacional
Mé
##ert
igual
mode
gas
vuel
##ace
14
especial
##eleb
##tur
##ilo
disfru
Univers
2018
económ
16
mejores
Am
acuerdo
palab
niños
on
##aran
extra
orden
##irm
##tamiento
13
empresas
ampl
all
nego
##xico
respons
##ares
termin
experiencia
##anas
pág
Yo
minu
##acter
##af
lado
zona
hombre
##isis
instal
celeb
conten
##uestra
##iene
Cuando
##stitu
##adrid
##rem
cambi
fac
número
Fran
tecn
seguridad
También
recom
##ile
aum
caus
dig
amig
funcion
##cer
##ire
##ira
##áp
##abilidad
##ombres
dif
##tidad
realizar
expres
Per
##ensa
Madrid
meses
public
nunca
25
amor
Res
##gn
libro
trata
##ome
incluso
vent
tenemos
Dios
17
lec
fuera
id
familia
tengo
puedes
anti
##ráf
escri
natural
cir
##toria
lí
agr
hemos
##uye
##ama
##can
##izo
parece
jue
prev
recur
##anci
##bol
lín
##graf
Mon
juego
##arlo
##ticas
fá
##ría
dirig
prác
cumpl
##reg
aún
##ram
##igo
centro
##of
li
##dose
saber
po
##iera
just
alim
unas
Lu
##ticos
logr
##lica
materi
hora
loc
Ap
mercado
Cor
##ne
Mun
raz
emple
prob
Jos
deber
comen
seguir
##cha
indi
destac
cambio
relación
anim
etc
Cent
##isto
##bo
alguna
##AD
presidente
Estado
problemas
at
##iel
junto
sign
##ativa
perfec
Seg
ase
##aría
##ñas
##cis
mos
##ivo
##arán
usted
refer
algunas
total
contac
foto
##IC
##gur
poner
coment
##enas
defin
##ques
México
red
tema
precio
cuerpo
##est
consum
dice
oportun
alg
mús
Así
Euro
##olución
##iti
ol
##ección
programa
fil
##titu
##oz
fund
disc
##termin
##iado
afec
regist
situación
películ
##icia
domin
cuatro
sa
dispos
puer
##usión
##ach
podemos
##ell
partir
100
##aja
##eric
##rio
##ierra
nacional
##inación
mov
caracter
habit
ejer
tem
ori
problema
bol
escrib
pin
bene
frente
pap
divers
Intern
Que
solici
público
gobierno
ocas
varios
##otos
00
control
##echa
eleg
##rán
##cid
consegu
##ded
paso
##ron
199
último
siendo
##respon
inte
docum
##zas
entonces
##nas
pob
##ización
##pti
tri
##blig
largo
realidad
sociedad
enfer
explic
encuentra
prepar
##cimiento
24
##éis
nov
##lación
benefici
ba
##icio
mano
noche
##ef
rela
obra
ráp
##retar
##má
Min
##ifica
administ
Estados
##ister
acom
mus
estable
fácil
##dan
##blo
2017
rem
ví
##dió
indic
atra
##ulta
##iva
minutos
##dial
##ech
##tera
objetivo
serie
##uesto
oblig
actividades
municip
Can
To
van
Desde
##reo
falta
##rac
detal
ing
##orp
tenía
partido
energ
##bles
sim
Gobierno
ident
sector
real
##jar
Pol
podría
decl
base
##tiz
And
atención
tempor
depor
sociales
dinero
Pa
espacio
política
puntos
correspon
Sol
empez
prue
Juan
precios
derecho
determin
##eas
##omía
##icamente
##omos
##rera
##mientos
##serv
##del
Ah
Esc
hub
Te
##nes
##ate
##alización
permite
##ribu
Gra
países
Mi
50
##rigin
Tod
blan
jun
hizo
ll
artículo
mens
##rb
mediante
for
sentido
tex
ocur
Universidad
institu
mir
##ducir
ub
part
##gado
##rucción
##zos
alta
sitio
segundo
##lex
pot
##tin
siguiente
señal
mor
Dis
algún
mayoría
gen
##dir
capacidad
##ionales
##rió
tele
##trón
##gel
reun
sens
nuevos
imagen
financi
auto
diseño
Pres
Co
##visión
il
modo
Buen
creo
##acionales
Gener
Ver
inm
Unidos
##mple
suf
tor
##IN
Gran
tur
estamos
##tando
Hay
perio
alum
nuevas
cub
Tra
##lem
ra
quienes
ayuda
21
##gon
Mo
tel
priv
casos
Soci
viol
sos
actividad
##uesta
asist
condiciones
conj
pasar
Cal
idea
proces
##stas
##oría
labor
José
##ificación
22
origin
elem
faci
esos
encontr
##tados
er
##lado
asegur
tarde
Pue
fon
##iano
máxim
cuanto
##ién
##olu
dici
dejar
##turas
cerca
gol
estu
segunda
##ev
producto
derechos
respecto
##are
resultados
Reg
hombres
necesario
conver
acab
indust
##ingun
##ibles
Rec
##uales
##ulio
amigos
relacion
mañ
2016
alc
tienes
bastante
estoy
rad
##ecen
línea
##ándo
enten
Ab
comb
##tran
estra
##alu
principal
##puesta
##ug
haya
##guien
##forma
env
hacen
estudio
##turo
nav
coci
##íamos
dicho
puesto
inde
claro
pueblo
Pe
##opular
euros
nuestras
llevar
med
##encial
acep
##ich
impres
##adie
##ik
##ticular
##ítulo
ries
##ísticas
##ice
##reci
##tada
##alizar
presente
clientes
##dades
##opa
luc
miemb
Ya
Pla
ofrece
##line
Esto
declar
##ículos
##entemente
acceso
libre
pare
##ingún
busc
inclu
papel
##tion
##rero
jo
Ley
##ler
español
noti
página
##rin
blog
vac
dese
apr
##leg
fel
modelo
mañana
##ban
##TA
##unta
acompañ
ejerci
##onas
bueno
represent
coc
##var
ases
##ves
##ár
ningun
descub
vid
anterior
##dico
##tiene
único
propio
Is
cierto
fab
ado
primero
##illo
cinco
##érica
conte
varias
deben
Cl
profesional
##adamente
gusta
facil
fís
##II
capital
sorp
##óvil
descar
##gles
reconoci
##IS
ningún
usuarios
##cin
Nuev
quiere
hablar
##entina
##ror
##alo
cantidad
música
##tección
##ilar
invers
producción
##tubre
##ást
camino
luz
resta
palabras
##ramient
##van
fran
##ign
pueda
Arg
2015
medios
##ack
paci
cosa
ellas
##ilidades
and
Ten
haciendo
##rez
últimos
vista
observ
bo
##encil
beb
marca
##one
##izar
ingres
gratis
##urales
manten
Direc
alguien
##viembre
Ay
agrad
crear
demás
limp
##tá
##ian
rom
##icado
manif
##reto
##ós
cabo
Qué
Ob
tomar
##genes
fi
Pre
ru
23
recu
comenz
##uerra
Cam
director
univers
integr
mater
soy
local
agu
cuar
prem
##arias
##ivil
lim
particular
colabor
añad
##ris
##tero
alto
##ber
pron
vir
##ativo
##dica
disfrutar
cla
##éf
##ÓN
ense
##iciones
Son
lanz
##mit
investigación
##ase
##ced
fundam
propia
cri
perman
pesar
propor
Gar
abier
fecha
consecu
asoci
sencil
##rido
##amientos
cuales
##iana
esf
##puesto
mantener
herm
##oraz
recor
##venes
dedic
emo
is
conduc
difí
aj
encar
vel
##ptiembre
General
debido
provin
##dap
##ulos
abs
alter
recomend
actual
adecu
recursos
piel
##tividad
ofer
40
resultado
sería
##quis
herramient
conseguir
evitar
##udo
dol
resto
calle
conci
duda
concep
acciones
##ienda
mol
nadie
edad
última
##ática
futuro
volver
##gue
##isterio
estilo
mí
bal
##acer
##urso
##dedor
seguro
tit
Esp
##dido
significa
##iza
electrón
familiar
contar
éx
excl
enferme
Más
entrada
##omas
profesionales
poc
Jo
##tual
##ste
##ID
aplicación
fotos
vig
arti
venta
película
grande
az
##culo
##siones
recuper
##TE
##ete
record
##apar
sigue
tér
Ahora
Mor
ahí
dado
lig
##ende
##rup
alcanz
tuvo
tratamiento
medida
##óvenes
##partam
##onos
##itan
ayudar
##celona
proyectos
##tivamente
comien
lit
estruc
opin
interior
Rep
internacional
Pal
adap
muerte
hijos
visto
demas
habl
eran
aquellos
formación
esas
##ivos
##osp
veh
escuch
comunicación
##adoras
esté
trabajar
##onar
intel
##etas
vamos
próximo
madre
##rito
##rados
##trás
##ruz
oportunidad
manos
comunidad
sean
apoyo
enfr
Có
Cons
##crip
leer
##ts
##RA
##orta
##ándose
octubre
##ró
acción
contr
aire
2014
terc
compet
Comun
##acción
Or
##mac
pudi
##uls
naci
Serv
##álisis
##ancias
estableci
##avía
gestión
lleva
principales
##fo
Jes
##ém
noviembre
Aunque
preoc
##vención
individ
correc
##itivo
##jes
dirección
excel
pantal
##ense
obras
##ciona
##rel
PR
pat
cabeza
Entre
incluy
plata
comprom
##años
Bo
cult
muestra
Ro
interés
##igura
Centro
popular
Según
##her
diciembre
acer
mejorar
jóvenes
realmente
##ulación
LA
envi
##ística
##onio
##omo
##lares
##iste
The
##tagon
allí
##acto
##ública
septiembre
ejecu
lar
categ
coraz
temporada
campo
siglo
Comp
importantes
##li
garan
sob
usar
Barcelona
comprar
gob
dio
mer
joven
Go
tenido
##lio
Fin
compañía
energía
##au
##mágenes
fuerte
repar
Ciudad
Ser
puedo
##ocar
cob
ps
fir
Mu
elim
Desp
##elo
exig
##torno
cara
modi
redes
video
jur
María
##illas
##pas
online
dia
28
necesidad
Crist
fuerza
##ático
##iencias
post
buscar
##ficiente
Sec
##cionar
entren
vas
##ultad
##tt
cuid
contacto
equipos
enseñ
##ines
viene
primeros
##ducción
##ertad
queda
##icios
##gre
diseñ
audi
población
indep
26
##idores
respuesta
mismos
podrá
##sejo
salir
len
descon
Luis
ép
ata
Ne
mucha
##ond
carrera
bel
##pre
IN
Bol
sir
der
media
utilizar
##ibilidad
sexo
pequeño
##icidad
temas
supon
tierra
##rendi
Hoy
##itor
27
##bu
encan
anunci
viaje
selec
##itir
presencia
obtener
##esión
especialmente
posibilidad
ojos
educación
##ampoco
##xic
##bas
pasa
consig
Hola
alre
inten
Argentina
Carlos
hijo
difícil
construcción
##todo
términ
plante
sé
##ím
promo
exten
éxito
julio
deman
junio
mul
##cedi
bás
establ
##OM
padre
Ban
##taron
Todo
Pod
principio
Fac
fis
necesita
aprov
vic
curso
##pi
tam
##porte
##ól
enci
Institu
##glesia
##be
##imientos
2013
##ianza
quiero
Pas
Lib
lun
organización
todavía
arte
seman
dob
teléf
grupos
##irse
##ificar
contenido
mayo
##entado
usuario
conjunto
reserv
elementos
propiedad
Europa
tecnología
imágenes
##ger
rob
##ceder
ambos
menci
pareja
##rada
encuentro
ped
riesgo
conform
##dez
mín
protagon
serán
##tad
198
Santa
cuent
##él
área
##echo
##irá
##rag
dó
sust
juegos
material
ocup
##enda
##ke
##EC
##teriores
##TI
razón
demos
fru
##ég
##tió
Emp
##iernes
esfuer
##OL
tot
existe
##bajo
ninguna
fies
inme
versión
terri
Educ
sabe
Gracias
adel
libros
##reas
Ven
edición
necesidades
superior
opción
busca
##oro
padres
colec
##gosto
sur
##americ
histór
imag
hacerlo
cad
lista
función
##ulas
respe
##CIÓN
conocimiento
##greso
móvil
cargo
clase
##metros
##icía
pier
comerci
60
arm
partes
aprob
participación
bon
hotel
Plan
aleg
lin
##uerto
efecto
medidas
elabor
puedan
2012
##cular
jugar
##bal
##ear
euro
oficial
estudios
cambios
gar
##rum
vivir
Pu
Después
plazo
##itado
Her
##ical
hici
metros
##idor
##ila
##aya
ofrecer
cliente
Del
##tific
##lés
##ezas
##rob
##grafía
has
solu
Ho
única
ES
cambiar
crist
acon
marzo
preocup
Pr
num
Mart
##pera
Colomb
ambiente
enero
común
Muc
miembros
bor
##remos
incor
simpl
##ráfico
##istro
gal
concl
siguientes
Cap
estrateg
vari
##hib
resid
voy
##ket
menor
##oft
cultura
##dar
crecimiento
##ientíf
veci
líder
gratu
frec
##AM
mez
##ps
pensar
corazón
conec
Fern
##inado
##ebrero
tendrá
negocio
tradici
##rí
##ance
libertad
vin
importancia
jorn
compra
recog
abril
##aces
##cina
##ner
##ari
prueba
sop
moder
dom
Tras
conven
##tario
##éctr
preten
##nov
##entales
formas
Durante
##ámara
##edor
##tora
cocina
##edi
Prim
##ferencia
mayores
arch
##ED
##fil
##ong
ciento
conserv
perten
##titud
constru
sáb
##ieza
proteg
##ído
evento
Salud
seis
##uelo
##pir
##tarse
##eti
apoy
dura
##ortal
##TO
29
##óp
##cur
kil
##riz
peso
encontra
viernes
lugares
pública
31
cuad
##ritu
dud
pago
tenga
Nav
candida
requier
Hab
pros
marc
efectos
alrededor
##aca
pien
momentos
##vieron
Sa
##tim
##ans
##uestos
##zquier
regres
##ware
recibir
totalmente
##tia
completo
acerca
aprovech
olvid
consul
##tería
cel
Todos
##ww
Internet
nar
##IA
trabajadores
estudiantes
habían
permit
##ficación
Cab
colores
dolor
demasiado
satis
##iere
diferencia
Feder
características
análisis
guerra
Tor
Ha
##th
movimiento
crít
mane
ideas
presid
##ablemente
sistemas
##osición
Der
##itario
fabric
edifici
mem
relaciones
##uestas
##partamento
##ebo
##laz
sum
opciones
##son
resist
##via
protección
época
Ter
desarrollar
nota
##ork
##édi
profun
pelig
avanz
espaci
##ormente
##íos
somos
##olver
##enes
decisión
##úa
correo
dev
causa
##rica
niño
##eria
allá
agosto
extre
baja
región
Ministerio
naturaleza
##EL
obst
##tino
humanos
título
##digo
volun
pequeña
##enos
tampoco
dibu
Nos
adi
norte
pagar
víde
mec
materia
##ácter
##idera
carácter
Jesús
##rios
encuentran
##tón
perder
ayer
autom
exclus
EN
##ry
Colombia
evalu
presup
Super
2011
##redi
##hu
visit
equ
fondo
comunic
He
##iro
comida
##umen
tro
original
##ardo
transform
recuer
www
dólares
Au
Ca
Anton
llega
ta
##ws
incorpor
vie
35
dan
##ee
ajust
separ
##tilla
crisis
materiales
científ
fl
sil
supuesto
compartir
##ega
espera
intro
entender
entrega
Mas
relig
##rimonio
hon
visita
práctica
pen
mostr
##cho
Real
##ogle
Chile
##empos
cop
origen
experim
##endiente
tamaño
Os
##quina
verano
domingo
eta
máximo
##quit
pequeños
creación
teléfono
febrero
Imp
pis
campaña
mundial
##ultura
dé
##ética
suel
cine
distintos
permiti
##este
quieres
##ticamente
##vent
##una
##arte
palabra
##iga
posición
Ag
llamado
Administ
antigu
US
dorm
salida
desarroll
##alizado
izquier
deja
programas
increm
##ordin
liber
Señ
##estr
quiz
texto
EL
podía
##cti
so
##ortar
sup
alumnos
##oda
zonas
presenta
2010
##ajo
Ped
May
estaban
##tadas
humano
frecu
##anismo
autoridades
##rend
##tiendo
inglés
desapar
disco
semanas
pul
Sus
##reno
##esta
encima
##rer
##úsque
ejercicio
##ecido
voz
##itiva
trabajos
Gal
directamente
##iedo
Cómo
iba
consumo
##tiles
Internacional
veloci
procesos
civil
Deb
##antil
##culos
pantalla
monta
dip
hogar
##idamente
pun
urb
gri
pregunta
##teriormente
##ológico
##ificado
incluye
##tbol
tú
aproxim
197
correspondi
reconoc
##álo
mic
ens
cerc
the
blanco
contrario
ámb
simplemente
##edes
Martín
provincia
##erte
##lev
hom
500
Asoci
##aravil
##arla
sábado
valores
asi
planta
tir
lograr
eléctr
continuación
##isa
llegó
##cía
##tud
negro
Francis
##esa
disp
anun
glo
blo
Consejo
bienes
Mig
tiempos
Inform
##20
80
##eño
brin
solución
##ospital
pied
aprender
div
club
##erto
ganar
##izado
ace
##untamiento
escen
Dec
aband
Educación
##tios
resp
coche
adelante
invit
industri
amigo
##tidades
cic
específ
ren
diferente
##íp
tratar
Mad
personajes
América
distintas
famos
militar
elev
marco
##quitec
##uestro
htt
excep
Estos
##ést
europe
##torial
pocos
##ablo
políticas
Cos
descu
##ebook
CON
ideal
histor
##ribun
responsabilidad
##posición
##útbol
alterna
Cada
interesante
búsque
partidos
Nueva
procedi
Instituto
acto
##gada
intelig
niveles
grab
clás
##mite
##ueves
##TR
suelo
mexic
arg
##itivos
lucha
estrel
##ajas
innov
Social
entrev
Rod
##itud
existen
Ej
diver
vícti
conocido
tipos
jugadores
referencia
##lad
##uri
fras
buenas
##ati
motivo
##riendo
lunes
##ota
Ros
##tamos
ros
##AC
entrar
fe
##eman
##ismos
acerc
entorno
##ment
podrán
maravil
obten
mensaje
mit
económica
Sh
Mus
Cub
detalles
quién
resulta
familias
Antonio
político
gén
superfici
aten
realizado
fra
##ónica
modific
UN
locales
volv
presentación
45
Fue
##olo
##ival
ocasión
hechos
convers
doble
##pectos
##vin
##ices
ocasiones
jef
constitu
responsable
surg
##ensión
economía
##estiv
puerta
Just
estim
##ka
decor
Pos
##cle
democ
Art
##dicos
90
aprendi
rendi
enorm
hermos
##ístico
ep
marcha
enl
Tran
impos
inicio
presentar
convertir
much
alimentos
##cido
habitu
Ol
interpre
##aco
atrac
éste
enfermedad
ín
internet
##wit
violencia
normal
selección
vuelta
##cito
tarje
Mundial
tienda
inversión
pronto
ahor
##iles
##ff
##ativos
Día
acces
disposición
Org
aun
banda
comercial
Municip
concent
categoría
podrás
##ánd
transporte
##riba
objeto
Hum
##lej
##tina
estad
Francisco
##ativas
económico
##genier
propuesta
simple
##inc
suje
opinión
Sp
Pan
Mic
República
herramientas
legis
##ique
##resa
afirm
vend
maes
amena
Da
precis
##ix
excelente
compromiso
coleg
##EM
eres
extran
sentir
taller
##onia
comentarios
##cla
pid
Google
##logía
##itaria
cuesti
intent
desemp
jornada
electrónico
##abil
ves
suerte
##orías
Pues
##cionado
##onado
##ribución
industria
Comisión
voc
##anzas
disponible
acus
pér
artículos
clave
##cionales
##eos
##tique
##áticos
velocidad
gobern
Vic
queremos
capaz
Medi
escuela
Venez
déc
animales
prensa
Amb
elegir
Eso
ubic
Algun
firm
preci
fem
Rob
##ológica
pone
##ideos
aspectos
garanti
propon
##cripción
Miguel
técnica
##ónde
fut
objetivos
aumento
modelos
Luego
vía
##jero
pena
##endencia
toma
##íritu
diario
Bus
##teras
mesa
fol
##iver
##ír
adop
##ock
respec
##ello
##enso
mitad
##imismo
##ético
##UR
##eció
adul
baño
fan
satisf
rápido
beneficios
centros
pie
##cidente
##ires
completa
##ili
almac
##unid
búsqueda
##aro
incon
70
inver
Red
tab
cat
estás
##fica
##rantes
diez
fron
suficiente
porno
compon
##fes
escribir
Tur
Em
estructura
señor
##imen
funciones
Segu
cumplir
jueves
constante
##orge
##itales
instalaciones
##coles
mat
personales
conflic
Pedro
administra
mente
buenos
miedo
española
oferta
caf
pag
2009
##taciones
##óst
##ph
perd
##rique
Secretar
##ramos
##dil
participar
pruebas
dific
titular
##taba
cuidado
técnicas
segura
laboral
##rende
Merc
central
repro
Manuel
magn
oro
complic
hid
competi
##lesc
contenidos
Bal
bra
variedad
##riv
cuyo
Casa
Asociación
Dan
eng
##isp
Inv
##fía
##arnos
sangre
otor
espacios
##aremos
##ienen
estará
prac
Europe
##ández
Desarrol
Cer
Sab
principios
informe
pacientes
políticos
Aquí
buscando
alcal
36
instrum
Ben
##IL
estuvo
##ju
Tu
##onales
bril
osc
coloc
II
García
##osotros
Mientras
log
##quer
convier
##rit
exterior
Ayuntamiento
concepto
##ame
##ísimo
lic
dicha
debemos
##ósito
Hace
Gru
ciudades
representa
aplicaciones
transm
##tiago
Gon
##uta
conse
##xto
confianza
diversos
Fund
haga
esfuerzo
##ecía
##cede
ciudadanos
distancia
habla
circ
cuestión
##tarios
##ércoles
Mujer
##ngel
##enov
denomin
##asa
amar
páginas
##alizada
Cre
Trans
Venezuela
##ioso
##ianos
##jeros
##ierto
paz
adm
##lez
go
Buenos
##álogo
Oc
llama
mag
destino
prove
##enciales
complem
estadounid
At
##ly
azul
digital
crédi
películas
deberá
##iego
actualmente
quieren
##tuvo
EE
ofreci
fiesta
##quiera
madera
SE
Esper
mues
instituciones
acad
Congreso
##iales
publicación
municipio
##ime
defensa
arro
##oj
manifes
pec
atrás
asum
bot
##toral
debería
Estas
reflex
kiló
2008
cog
técnico
##ki
golpe
Edi
##CION
administración
clases
cif
áreas
fuente
realiza
Pers
##torios
reunión
##rump
miles
Rey
enfrent
gusto
altura
confirm
empezar
perfecto
chicas
campe
##acia
pais
sacar
incre
empleo
Bel
##oftware
pesos
Th
##lea
guar
memoria
chica
moda
produci
XX
ech
acceder
Fu
dismin
propios
apenas
##teles
##inta
##ánica
ropa
vino
Estudi
##teca
sín
##eran
Gonz
##guay
comba
fortal
conex
cru
suav
habrá
camp
Pablo
##oper
naturales
médico
escrito
Iglesia
Santiago
influ
etapa
diversas
escol
hubiera
figura
Ba
llamada
contrato
colaboración
periodi
##tará
numeros
arriba
visión
salv
internacionales
clic
visitar
Sist
darle
##IT
Be
tradicional
motor
##rés
program
ámbito
Porque
##uelas
amplia
##Ã³
televisión
provoc
##50
psic
cultural
inmedia
reclam
unidad
Dav
negocios
Enc
perfil
género
carre
##keting
siete
##estival
personaje
Mal
Sur
arquitec
públicos
toc
##aliza
torn
Hist
ganas
##igh
entidad
196
##UN
Ind
cuya
completamente
infer
teniendo
dando
Seguridad
crec
derecha
Francia
dicen
Bras
Catal
##viv
abrir
pudo
comenzó
multi
aspecto
32
restaur
fuego
##tien
##quilib
##gust
implem
funcionamiento
Jav
términos
Form
martes
comprob
corre
fres
fútbol
##taria
fundamental
##SO
argu
cóm
eventos
tritur
adolesc
izquierda
tamb
impacto
testi
lengu
Pat
radio
miércoles
recha
##zado
##sas
China
preguntas
actualidad
cualquiera
Prem
##ity
##ej
##teros
Rev
cm
demanda
periodo
limit
##UL
flu
llegado
calles
sosten
cuarto
anteriores
esperar
##bilidad
mostrar
##IO
marcas
do
Bl
##ore
##witter
plataforma
sala
tranquil
Ni
ésta
##RE
territorio
avent
zapa
##fa
Ra
luch
##utri
##edores
aparece
prefer
##anc
negoci
##iblio
carga
cuan
Fel
revis
profesor
ras
Españ
circun
Web
mismas
bur
Econ
lejos
dónde
tales
primeras
sitios
##ull
anal
situaciones
##ciente
estrategia
##ribunal
organizaciones
Nic
##UE
NO
fer
contemp
##ópez
##och
Po
aprendiz
##cent
descargar
iniciativa
Facebook
generación
jurí
convir
aceite
escal
trabajando
justo
rode
##arme
ge
##guez
Uno
plantas
##idez
ambient
##últi
piezas
##ulado
##riente
Señor
##uno
peor
López
Tal
derro
intereses
justicia
utiliza
Ram
afir
secretar
300
##leza
act
Valencia
Grupo
##IM
crea
##enciones
grado
##ks
playa
elecciones
quería
habitación
Aut
sabemos
##ang
##uegos
##eral
dim
presupuesto
##ind
Inf
Comer
##lamento
familiares
revel
jard
##acho
vídeo
mínimo
mam
edificio
piedra
Ofici
acog
guard
ventas
presión
bloque
documento
Blan
##tienen
regal
bara
fas
##drá
##anda
##tig
pedir
Cuba
soluciones
hija
Desarrollo
##trol
##endientes
##ese
2007
ocul
aport
disponibles
prome
constit
detec
solamente
##illos
conocimientos
##men
alguno
Brasil
tercera
requiere
##usa
ton
Progra
aquella
conm
##ches
kilómetros
bre
finales
##íc
necesit
individu
susp
##elas
##AT
posibilidades
boca
dificultad
sola
km
##hn
tengan
##ielo
rit
##cipl
naveg
##ánico
cita
##estruc
terror
due
##uyen
abog
competencia
puertas
##égimen
##iamente
##ky
Ja
imper
hicieron
##áis
sexual
novela
dudas
llu
##tillas
Puede
##ologías
comport
Aires
impuls
noticias
larga
Club
especiales
33
vecinos
encanta
##ins
sueño
fuerzas
##iores
##ivas
equip
requis
carta
existencia
Dic
entra
casas
Presidente
decisiones
##ieran
##ple
##eso
mantenimiento
ment
##villa
esco
lectura
mejora
concre
triun
líneas
consecuencia
últimas
obstante
reducir
Incl
normas
tercer
##tus
##endido
Rom
tej
##tillo
digo
dejó
##yas
herramienta
evid
gesti
##enar
idi
Unión
##eñ
##onda
explica
pasos
vehículos
##icción
Pon
Sí
ido
##arc
respeto
##blos
prostitu
gras
Doc
Perú
alcanzar
##table
Constitu
jugador
exposición
jefe
finalmente
asegu
##uebles
ocho
##ítulos
compañeros
hacía
ec
Actu
##iero
directo
acum
vivo
##ída
Cruz
videos
pobre
espero
Pl
alquil
Mil
##toc
##igu
vacaciones
catal
##iosa
vivienda
Hasta
habitaciones
física
grave
verde
retir
##ráfica
Fer
##ude
cumple
cuentas
agreg
alcan
vincul
diput
Rus
escenario
permitir
deten
posibles
##umb
Mag
publicado
instalación
sesión
##raciones
Asimismo
avis
##rás
podrían
explo
ade
Dirección
Tec
##peratura
garant
coin
##ítica
firma
Op
exter
renov
veo
Def
pelo
relev
meta
Domin
34
quedó
##izada
vehículo
apun
##eda
establecer
mala
feliz
cámara
especie
incluyendo
##iados
habría
http
##diendo
PP
fuentes
exac
escuchar
aquellas
Vir
sede
##anismos
superficie
##use
generar
fen
##vas
Ti
asc
ministro
resolución
pref
máxima
Mac
abajo
conden
pequeñas
software
Ber
##ígen
##tumb
colomb
##ulares
considera
traduc
principalmente
fines
demostr
sectores
fiscal
somb
sencillo
embara
suele
artes
académ
integ
##mento
##10
All
##oo
resul
##udicial
menores
error
intentar
tes
hará
##tron
Don
supone
prácticas
similar
##mail
sale
##ale
##ucha
##ive
barrio
deseo
increí
##arca
registro
##rupción
llegada
podido
produce
##leo
Elec
unidades
rendimiento
sección
dur
ciencia
Hu
Fundación
aprendizaje
lev
humana
criter
operación
pasó
ambas
requer
##ker
rey
##resión
Fis
##AP
levan
resolver
human
domici
##indo
propias
corte
Servicio
har
plaza
reac
colección
On
pérdida
##chez
calor
ges
argent
Jorge
experiencias
imposible
##ástico
##tida
emerg
aloj
enfermedades
documentos
##rador
York
##amor
entidades
##íodo
##venida
temperatura
realizó
premio
##tales
##áticas
maravillos
enorme
abierto
##iri
conce
##arle
##onato
traslad
consigu
cama
##hes
##erop
belleza
pil
Profes
absolu
##uncia
##isiones
debes
circunst
err
operaciones
señaló
Publ
canciones
siguen
deporte
Norte
##iendas
##uma
Policía
##anía
##racia
##OD
cereb
múlti
silenci
legal
aper
hubo
conoce
Está
amist
comenzar
Creo
Exp
jam
policía
ingresos
tuv
Jun
##reras
consol
desper
##mina
factores
razones
##emia
bu
##onía
hal
victoria
gl
permiten
##uña
equilib
##iqu
pedido
funciona
##puestas
desaf
interc
##viamente
localidad
rol
##imas
cán
Ta
Vol
aumentar
rue
Administración
vuelve
ruta
detrás
##torias
nomb
##US
dispar
##emania
comerciales
tenían
Mej
##int
siquiera
ital
##ACIÓN
dul
##para
gastos
participantes
nacionales
Fuer
##día
##king
##orts
elección
comunidades
adqui
mencion
isla
##eca
consulta
David
comercio
tiendas
comentario
parecer
Entonces
Ángel
ses
Civil
##inaria
far
período
llevó
sensación
pic
ran
ofertas
Puerto
##ríguez
sonido
aproximadamente
aus
##tismo
Us
Sil
noticia
Sobre
recorrido
divid
comienza
fase
agre
Az
##itación
##formas
##endas
##ples
expertos
intens
Rodríguez
informó
Fernando
##ko
Noti
AL
construir
##ité
##cés
correspondiente
##ivamente
cort
espíritu
convenci
##tantes
condición
hermano
enem
##itarios
##idar
Especi
##wn
Justicia
ast
ataque
propuestas
certific
manda
artistas
revista
##quilla
Muchas
peligros
código
río
ofrecen
corto
##tigo
Alemania
régimen
##estre
Provin
estén
expresión
hayan
dispositivos
Sub
##trop
motiv
públicas
Muy
micro
municipal
pueblos
carne
juntos
Cristo
recordar
enti
reconocimiento
formato
encontramos
vive
##adio
##mon
háb
##olucion
Ital
AC
##ológicos
tarea
Má
Sevilla
##rael
##roid
Tom
Tiene
León
Ing
mantiene
##ondo
Bas
distribución
Solo
Bueno
##metro
alma
Alf
describ
denunci
Sel
lav
identidad
terminar
##echos
telef
Escuela
bomb
indica
presentes
piso
entrevista
cumplimiento
delante
canción
##mites
ritmo
quin
Tar
##lada
TV
método
AR
crim
Siempre
Bien
garantizar
##val
Él
ustedes
parque
pies
cielo
##venir
2006
##vera
##amento
##ánchez
Gonzá
adultos
##ierta
falle
término
##arial
fotograf
costo
recuerdo
explicó
##ij
acos
##endiendo
Tel
prior
voluntad
planes
Sam
tambien
##VA
femen
aument
recep
prohib
enlace
PD
Públ
##vel
duro
gustaría
Sánchez
historias
habitantes
enter
##igur
fondos
cruz
intención
##iación
Organiz
González
Servicios
dejado
privado
oportunidades
caja
##inados
actos
artista
ilum
contexto
miembro
Nuestra
implic
convertido
relacionados
víctimas
empleados
##raestruc
global
Leg
##crib
ga
mirada
rápida
veg
Encuent
Hol
38
bio
sient
pasando
Villa
##dr
##ficiencia
ocurre
propie
Sem
48
sirve
##inal
paciente
RE
seres
objetos
recibido
Estamos
secund
Pad
españoles
##jado
tarjeta
próxima
contras
Dos
alem
Mat
debate
AD
quizás
conexión
juicio
perspec
dispositivo
perió
armas
distribu
##oluc
formul
profund
oficina
circul
Sistema
proced
conciencia
estadounidense
DEL
creado
##eratura
##eña
detalle
rum
tr
adelan
debajo
escena
Produc
regular
terreno
##erap
tren
cursos
##chas
asign
institución
nutri
canal
prima
Antes
01
##ciales
##oras
típ
abra
Partido
practic
descubrir
trá
intervención
##amentos
rojo
obliga
AN
tendencia
publicidad
XV
##ogra
Depor
mezcla
Mol
daño
##uci
##ash
##ámica
nove
resistencia
trist
dro
urg
vender
##hat
expon
Har
directa
Pen
##san
puso
musical
pasada
VI
##ecimiento
Junta
reduci
proteger
##ucía
##ini
So
Comunidad
##éndose
Med
##uir
contiene
cadena
crédito
##lano
importa
##utación
leyes
sabor
##echas
ilust
án
##ambio
hermanos
Zapa
especta
lóg
##amo
bici
saben
propósito
##íz
gama
feder
##usiones
Banco
necesaria
venez
eliminar
foro
pase
siento
##lante
volumen
departamento
Ger
##entro
mensajes
Ge
##alizados
clín
beneficio
cierre
limpieza
##orios
Tecn
##acas
precisamente
leche
deriv
##ursos
histórico
Pé
##uelos
reforma
ciclo
Nuestro
estren
pocas
suma
llevan
193
capaci
quis
cál
##gados
quedan
##berto
##tador
Rusia
hier
amplio
sorprend
tareas
arreg
Dip
cree
##aa
Ste
contrib
vemos
Ib
##ubl
integra
aseguró
##osos
Investig
nie
promoci
##quinas
##uyó
viajes
procedimiento
##rano
194
habitual
##ianas
vul
convoca
deleg
lenguaje
37
##fe
sustitu
Cultura
reconocer
##ty
Ast
exam
iglesia
físico
suelen
Dist
múltiples
##OC
evolución
trayec
torno
##arra
##ueso
##ung
Neg
vit
hospital
puestos
bos
Do
organismo
potencia
##éndo
sabes
hacemos
##zada
Tierra
Nat
simil
COM
honor
restaurante
mig
##ército
duración
pose
permanente
##dedores
##indows
##esper
movimientos
inferior
ON
arran
leyendo
perdido
mand
##ade
##gamos
aplicar
simp
recuerda
##OP
vaya
útil
cierta
2000
órg
espectá
frecuencia
Leer
reciente
##etido
##ipe
##ys
controlar
##ole
placer
conocida
##land
Sólo
##AB
chicos
promedio
aguas
tendrán
nombres
apreci
Javier
##nidad
Era
AM
Lin
inau
promoción
requisitos
medic
refiere
necesarios
John
rápidamente
##ritos
subir
repe
batal
##eropuerto
Ev
encontrado
perfecta
##ella
400
##iese
segundos
presentado
Sex
Cla
almacen
##enses
##amblea
clima
planeta
infantil
iP
impresion
optim
liter
probar
cuidad
desn
guía
proporcion
##aturas
formar
pensamiento
##IF
entregar
flo
asegura
##tég
consiste
vale
realización
##ET
tecnologías
responder
Tri
##zan
##dios
seleccion
##piración
putas
alimentación
Sociedad
Derecho
dejo
Plaza
##IEN
acaba
##radas
Técn
##let
produ
39
Pérez
##ted
artic
br
infec
asistencia
refle
##icion
Estoy
##jal
Twitter
come
hablando
concurso
actuación
##render
cáncer
recibió
misión
cuentan
Proyec
Dr
##enden
americ
Indust
suminist
##IB
list
##entas
elemento
asesor
producir
tantos
Artículo
Trabajo
chico
AP
Pin
intelec
progres
protes
contactos
reserva
Ed
espal
presentó
contes
lengua
comportamiento
##inario
flor
##jeron
Agu
concreto
##ICA
Municipal
aclar
##upar
cuán
##gü
errores
fenóm
efectu
agentes
##tamientos
75
mira
Departamento
195
esposa
lleno
clara
asunto
##ayo
porcent
necesitan
solicitud
Soy
venezol
##ruguay
##uestros
archivos
continuar
adecuado
francés
dieron
evaluación
##mm
carb
##ure
consecuencias
Tribunal
café
Copa
##rimiento
Fil
utilizando
verdadero
Const
PAR
mercados
fom
##coh
tre
porta
expec
suces
niña
representantes
alcance
Información
Hotel
Raf
industrial
##tró
Italia
##úcar
próximos
poderos
trabaja
domicilio
42
Puedes
alcalde
##UC
paque
explor
solicitar
##té
huel
audio
tap
Ejecu
bebé
pretende
estan
desen
consejos
sp
##lom
Programa
44
menudo
riesgos
CE
Vil
ger
##ísima
Audi
Gre
##ábamos
##aso
gratuita
Ru
##we
autores
Costa
abierta
Tele
##tri
desconoci
accidente
antiguo
involuc
caer
acudi
perfectamente
quím
Europea
motivos
Quer
etique
caliente
oposición
##doba
Noticias
##ísticos
utilizado
##gadas
prote
fotografía
responsables
tier
Mis
bi
##yos
carretera
55
Algunos
puesta
##iverso
servir
amistad
For
##oder
##ualmente
ubicado
decía
##mentos
##ificados
##ibl
##adura
conflicto
bru
cuál
discipl
##todos
cabal
Central
convierte
Jap
comunes
sencilla
##onso
flex
marketing
animal
infraestruc
peligro
Corte
Julio
vot
fuertes
deberán
Nuevo
Santo
máquina
alar
##amas
##ciles
ejecución
##ólogo
moles
trituradora
adj
##rucciones
Clar
autén
##apacidad
transpar
Secretaría
protagonista
Martínez
Liga
masa
Fernández
Men
2005
##izados
autoridad
##Ã³n
Ana
##tición
incluyen
Jul
##si
jap
Otro
actitud
##duce
creci
toque
fantas
breve
médicos
apertura
soporte
hacerse
##rieron
##icales
Agr
celebración
##ane
##bum
quedado
escap
defens
viendo
potencial
Guerra
Of
números
Les
##américa
##tric
pensando
##MA
Otra
abord
##eres
sínt
##tista
actuales
ais
habilidades
nerv
archivo
envío
Sig
teatro
Salv
##ólica
##ueve
técnicos
independiente
43
PC
auton
estación
Conf
##óstico
pintura
##quez
Hern
agradable
vienen
hago
estrellas
funcionarios
futbol
recién
Flor
comput
prácticamente
ingenier
ign
establece
Cór
recibe
Lond
Gab
##jan
perro
Cámara
##cesa
corpor
Tenemos
bases
enviar
dibujos
Museo
privada
cooper
relo
contam
##LE
década
secretario
subs
llevado
41
##rid
hel
descan
##rando
ingredi
Trump
buscan
##risa
únicamente
##tización
ubicación
Historia
##IP
comunicado
alcoh
desea
cay
sabía
terra
cél
reb
posterior
##IR
##vos
Usted
mel
vistas
cabello
empieza
estuv
##dieron
##gó
depende
aquello
daños
Div
definitiva
turismo
##ilos
dejando
Valle
alm
ul
brit
huev
Bur
##abe
##ualidad
##dor
inspir
vidas
Inst
##rón
Constitución
Cat
implica
Windows
lujo
manifies
costos
matrimonio
Ama
Mundo
Tengo
llena
##inada
Federal
recuperar
contribu
acuer
premios
llamar
desay
ileg
comprender
Todas
Guar
Ciencias
creer
recuperación
##mart
anunció
Rel
##eramente
deuda
Alej
caída
indicó
##cib
enamor
económicos
afirmó
orgul
salvo
móviles
candidato
Segun
probablemente
pese
decidió
##ii
visitas
Reino
##IG
consist
encant
Vis
##uera
rod
je
##ube
receta
Ins
vein
sufici
Sup
##cidad
Ric
##eles
sho
Lle
choc
##onados
##icultura
rap
tráfico
costa
cuel
##dado
desplaz
esperanza
flores
adecuada
frío
inicial
estrategias
150
gobier
##CO
oficiales
Ese
dije
##ológicas
ago
genial
##ejo
Rafa
dieta
abre
apos
mm
juez
##uf
rub
##cado
Foto
profesores
desa
quedar
Pel
##úl
comod
Coleg
New
dil
apartado
similares
añadir
terap
integral
##iada
reales
capaces
regalo
rostro
##afas
coord
##aña
biblio
ventaja
banco
##órm
vio
conta
fiestas
representación
Af
Alejand
facilitar
tono
Parque
piscina
especies
innovación
th
fácilmente
frases
circunstancias
azúcar
##ites
##BA
establecido
camis
destacar
bl
individual
conoz
causas
comienzo
manejo
peg
Fr
ret
invierno
lluvia
configura
viajar
hamb
logró
puedas
##grado
generales
##dice
##americana
movil
##ood
impar
estudiar
siente
descrip
altos
Hospital
##olas
parecía
posee
teoría
tradición
##osofía
Andal
acord
tasa
entrenamiento
ans
empezó
juz
ál
Viv
Gol
##qué
coinci
electoral
##tesis
celebrar
consultar
viento
##inarias
salió
diferencias
##ith
árb
necesarias
necesitas
##gal
##tuales
pleno
compañías
nuevamente
propiedades
apara
##oche
Finalmente
compras
##timos
##sen
##ey
usa
guer
Jer
Río
tuvieron
##eler
democracia
Trabaj
escribió
querido
cuch
dispone
Boliv
torneo
##ami
##igos
puerto
pieza
cá
Sala
##cepción
confir
garantía
regul
##PA
##adero
jamás
niñas
##ocas
prostitutas
incluir
adquirir
funcional
##rarse
##ight
##ray
analizar
##obili
respal
alb
reducción
##osas
París
##olv
mac
Medio
Mir
accion
discurso
expedi
patr
##arlos
esperando
culturales
##tidos
mate
Fiscal
Luc
estratég
vest
tantas
crítica
literatura
##pro
corresponde
2004
##uyendo
utilizan
UU
Bor
dispuesto
##30
Igu
llegan
expan
hip
equival
sof
bil
Fre
##ventud
Comercio
líqu
presentan
complejo
viven
destaca
##turación
##ristas
actor
Córdoba
actores
gr
expecta
09
situado
nueve
Plata
Somos
ordenador
estados
Android
convertirse
atender
señala
99
cerv
##tudes
##isos
Mur
ciertos
##tología
salón
determinar
65
aceptar
Latina
Federación
sentencia
personalidad
conqu
##stru
##resas
Alb
circu
##IV
Gas
##ífico
Sen
pene
enseñanza
Daniel
populares
minuto
textos
fechas
delan
aliment
##ham
impon
curios
##okies
sorpresa
defender
antigua
Premio
Ella
Na
##LA
anuncios
recurso
pecho
export
##11
##han
##íb
##esía
Gestión
acredi
escuelas
fib
gir
Il
Ante
2003
cuadro
cot
fiel
genera
##quía
alej
frase
64
ama
##iter
alegría
inmedi
##rante
dominio
infl
horm
Tea
afirma
##UD
reto
##ricación
manual
hice
diálogo
##urs
correr
##mer
dor
hipo
##tificación
##urg
Aust
suave
##habil
Ga
Fal
##etal
realizan
recientemente
entradas
quiera
dios
##teo
escolar
constr
Er
Andalucía
tarif
aparecen
clásico
##ionar
declaración
##orán
chil
gig
##americano
cha
##com
permitirá
desarrollado
Paz
46
Festival
som
rato
impuestos
componentes
seguros
Orden
##ezca
actuar
realizada
superar
##oque
cuadr
Vi
Ingenier
silencio
##just
adv
##entaria
fotografías
##ilación
moto
##ándole
##ieren
##maras
asociación
resal
modern
Esa
Dig
##ides
Hi
corrupción
ventajas
pide
dir
interac
incremento
decidido
meter
verdadera
##rilla
increíble
hos
malo
##lóg
mover
volvió
Enrique
periodista
cuesta
vulner
trip
##IDAD
anual
Pública
Arm
humor
corriente
Londres
Camp
coste
47
alternativa
CD
respuestas
08
##ley
universidad
bajar
norma
Decreto
adicional
##acin
restaurantes
activos
AS
métodos
Acad
Fab
Mov
reglas
autón
nacimiento
##ters
##ocal
doctor
Rub
parecen
cuestiones
Actualmente
perspectiva
sól
visitantes
zapatos
Protección
títulos
600
line
dormitor
##izon
talleres
cerebro
partida
muebles
##puestos
guitar
rent
incom
III
conseguido
finalidad
vigil
##12
bolsa
##ónico
##ajaj
batalla
inteligencia
vo
episo
humanidad
Mos
escala
colegio
Vid
##udas
##lando
##enaje
cantante
cari
Fun
Israel
explicar
interv
utilización
##guen
intento
design
##ód
razon
colum
mezcl
pudiera
campos
influencia
gira
usando
acabar
interesantes
logra
##TER
##ld
##ux
conforme
##ances
decoración
bienestar
tradicionales
Je
Derechos
cotid
ulti
##ife
##jera
vay
argentino
cuento
fracas
Guad
pobl
##laga
atre
agres
viviendas
plano
aconte
declaraciones
Cr
##quir
Diego
bro
##pes
amiga
##guar
conviv
Apple
##mes
Pi
Radio
rell
convoc
##tistas
##cindi
Zara
lanzamiento
##uración
horario
##úan
sentimientos
Mes
previa
combinación
##yn
preparación
Latino
suger
invertir
síntomas
##isten
ciertas
Dem
05
incluido
interna
delito
grad
Director
Norm
opiniones
##PS
reca
dará
Podemos
promover
escritor
empi
##gram
décadas
relacionadas
vál
garantiz
líderes
iniciar
sospec
##ames
edificios
rig
secre
##emor
##anes
considerar
bes
esfuerzos
##rales
cancel
##III
quizá
efectivo
##quen
Japón
viejo
logrado
ofrecemos
álbum
##ish
vosotros
fij
cit
Arte
##ortes
Nosotros
acero
Muchos
2002
Lic
Sch
aver
bras
jardín
##bit
met
vestido
dirigido
organizado
seguramente
ejercicios
tuve
factor
regional
alquiler
forman
defec
compañero
##iller
##ensiones
mirar
cocin
asegurar
afici
##ua
Lor
##pira
descanso
Hemos
seguimiento
acostumb
##ress
Castilla
celebra
dificultades
Cataluña
You
cerrar
02
##áles
probable
nació
retro
particulares
Fe
perros
Mel
altas
##ficaz
poca
mapa
desac
Bro
diagn
##ienes
eter
##terrán
manip
diciendo
49
Alberto
hermana
concierto
judicial
Av
##art
aprovechar
ingreso
ganado
colocar
tribu
##enciar
positivo
prevención
##vileg
socios
Ps
##oce
##wa
##don
hosp
maestro
correcto
conceptos
previsto
Quiz
fich
##atamente
pasión
##orio
##ox
crecer
refug
##idación
posteriormente
estarán
establecimiento
##éut
arena
##CA
##SS
impresión
95
Var
metal
apartam
eficaz
identificar
infin
##vio
##ertura
citas
##iosos
terceros
democrá
sucede
Contin
06
penal
equiv
hojas
##quia
fren
Salvador
Comité
extraordin
##QU
sen
Ima
hoteles
##ariamente
observar
ojo
dichos
País
identific
##mbre
muestran
ingredientes
##rará
##nal
##xil
estrec
Mejor
sobreviv
inci
cruc
Ecu
##usos
dañ
escon
blanca
##fas
Código
cár
##goza
demostrar
encontraba
sexuales
##ck
dormir
peru
estrella
anuncio
##ses
Alm
correcta
Navidad
##tral
abund
aparecer
gustan
muertos
privileg
Ph
plena
impac
##ráficos
afecta
##ayos
04
efic
##pora
entreten
Fl
##inando
##erse
comisión
novia
ignor
##its
polici
Española
##ICI
2019
PDF
descuento
Ve
coordin
hiper
anteriormente
sueños
##asti
aler
##ington
Ál
preparar
##óc
aportar
Andrés
espectáculo
corta
células
autob
fa
03
espalda
Juegos
##éro
Famil
porcentaje
Espero
aventura
##ney
##cidentes
Asamblea
Reci
Política
capítulo
##iversario
Málaga
##epres
Ara
letras
combust
aeropuerto
convocatoria
Mc
colectivo
Diseño
claramente
moral
gastron
límites
Tan
sujeto
##bil
agencia
esque
##port
pista
Air
batería
Arch
parecido
mult
##ferencias
estatal
libres
cientos
impul
##dimos
Sim
52
homenaje
##frica
municipios
activo
Unidad
denuncia
tanta
realizará
muerto
bonito
07
##endario
continúa
inmediato
##80
botón
prestig
coches
destacó
empresarial
cercano
elaboración
labora
##eco
##SOE
votos
Cá
socio
investigadores
capit
integración
víctima
##edas
tierras
idioma
Alex
##ómica
convirtió
fant
##rían
##ADO
universo
generalmente
vídeos
patrimonio
##tadores
##ibe
##cop
85
triunfo
##erio
Teatro
##dicas
elegido
emociones
culpa
económicas
ést
estancia
elig
##ongitud
serio
conmigo
pronunci
ambiental
Facultad
alcohol
##idel
diseños
oficinas
lector
trato
exactamente
Nº
rein
PSOE
mental
legales
Rafael
##ement
Ejecutivo
lider
significado
felici
militares
famoso
UE
brazos
Nunca
cable
portal
later
##MP
apre
cuello
espectacular
##ré
##abora
prést
##zca
exitos
##ragón
fig
Uruguay
carreras
financiera
accesorios
metodo
dedicado
##tornos
correspondientes
mascul
llegaron
sh
activa
noches
##otó
resca
sonrisa
moderno
exhib
estup
elegante
Mujeres
PS
##xx
protec
Popular
##rama
llor
habil
exces
grasa
Contra
parejas
Superior
Colegio
manifest
igualdad
licencia
Alcal
especialistas
absor
límite
punta
fic
símb
voto
##elos
##ómico
Mer
latino
abor
versiones
investi
gobiernos
vuelo
platos
interpretación
imprescindi
categorías
54
fáb
preguntar
##later
##orro
científicos
proporciona
##tell
secreto
pasan
##quie
cifra
Br
bicicle
merece
aceler
##olina
adolescentes
reparación
email
montaña
pared
Otros
##dom
##dep
emocional
Turismo
mexicano
arras
tol
Vie
inmig
ausencia
felicidad
##éticos
##ionado
amp
ejemplos
##icaciones
##uario
lum
considerado
Padre
##íti
basado
televis
##ics
seguidores
previo
acondi
originales
criterios
relaj
normativa
comprome
procedimientos
leído
2001
equilibrio
obligación
##leta
esencial
Tex
##tible
Edu
rock
##ecas
##wer
reflej
Autón
contigo
instrumentos
nave
fui
dejan
##ueva
##lin
##iforn
Cult
##abel
bancos
sing
##GO
novedades
conces
gasto
venir
despe
Cir
eléctrica
indígen
ventana
tabla
plato
##uría
rique
Primera
Jef
fabricación
eficiencia
interesa
##entarios
aparición
##rimir
extrac
cubrir
Will
implan
##DE
Dar
ingles
##uos
estudiante
chat
termina
cookies
canales
Organización
Equi
fenómeno
Incluso
tocar
remo
Bos
analiz
##riel
##IX
asesina
incendi
trim
jud
conferencia
hagan
ninguno
pareci
encab
grados
seguido
representante
##ína
preparado
seria
pasaj
Cual
llamadas
compati
192
vib
dulce
querer
comprobar
##terap
refor
podremos
decidir
fundamentales
##istencia
##odos
olv
Seb
lidera
lla
##lín
SU
Unido
Dispon
##rita
tengas
Vall
operativo
ganó
perf
jugue
##arlas
CN
pus
Vamos
na
##abilidades
sep
ár
##amá
##genda
permita
colon
##ting
##ómez
Bra
llen
pidió
llegue
infraestructura
56
##enn
##itando
definición
CO
actuaciones
enfoque
talento
##entario
quede
cartas
vigente
polvo
##letas
programación
Jim
integrantes
##zgo
Alejandro
empren
boda
gustado
aer
##alla
gratuito
arquitectura
pele
publicó
800
fues
Artes
Díaz
ponen
##remo
Mario
revisión
consumidores
gobernador
trayectoria
inmediatamente
IP
panor
##ándolo
##aman
piensa
investigaciones
alternativas
trabajan
Campe
Economía
##entados
reemp
Personal
atac
##DO
definir
celular
avance
inversiones
resuel
adquis
##quito
Conse
plazas
acompañado
tendría
cabe
agregó
dosis
##ífic
Humanos
##UU
candidatos
Hor
##ium
##ster
sú
tratamientos
normalmente
frac
transformación
documentación
peda
vuelto
##aste
Álvar
pobreza
competencias
##didas
##LO
Ori
Neces
horizon
Serg
notas
tum
fórm
diseñado
##imnas
desh
reuniones
profundo
apuesta
sug
series
debía
tendencias
lectores
Atl
Roma
##CIA
numerosos
econom
Lima
sinc
negra
##iritual
cifras
Du
Gómez
clasificación
cargos
haz
toca
Carmen
quitar
formulario
dirigida
##org
Han
##ÍA
##raron
regiones
sat
##diz
##umbre
arre
prisión
prol
concentración
graves
aparte
Granada
Cin
virtual
##acha
contemporán
actriz
medicamentos
daba
##15
Star
##ulada
complicado
puntu
some
ocurrió
exc
Clas
##izadas
homb
ataques
informa
expectativas
##olut
laborales
bols
embarazo
terminó
##uz
plas
Zaragoza
cristal
Black
Hombre
inquie
conocidos
básicos
sacri
##rom
cuerpos
empresarios
mág
Gob
molino
##órico
instalar
Haci
docentes
contratos
solar
interp
percib
##hone
venci
alemán
propone
##utas
liqu
piernas
desarrolla
gris
plástico
revolucion
Monte
tas
profundidad
##erales
Proyecto
copia
afron
levant
Ecuador
protagonistas
##atem
Apar
intelectual
viaj
vitam
##rista
recomiendo
adver
divis
Hernández
rodil
revolución
enfrentar
paral
mando
Energ
##uero
##ucle
educativo
pac
adquir
rut
municipales
Via
olvidar
consigue
joy
deba
comparación
tarjetas
Investigación
##itarias
Bogo
PRO
##dados
posiciones
histórica
##cidos
57
acuerdos
##erdo
##cor
determinado
##ss
cámaras
figuras
intercambio
Cel
tomando
Tener
suced
Negro
capa
aqui
##dador
expl
cambia
##ñez
##ICO
cho
longitud
aconse
aé
montón
retras
vías
Carta
##ENT
pienso
filosofía
##olutamente
sesiones
##ike
##ertos
Van
53
podéis
gay
llevará
visual
siguiendo
puente
Portu
tuy
om
matar
frag
##itat
contó
rival
tin
cobertura
##lados
tensión
festival
marido
anticip
##zon
Riv
proveedores
Cha
transmisión
rico
temper
goles
desayuno
dependiendo
comedor
HD
constituye
Tes
apoyar
evidente
chocola
satisfacción
Agencia
Torre
morir
Autor
aspir
ox
##inadas
ubicada
cambiado
Presid
##domin
look
Ricardo
IV
##entada
interno
##bla
injust
compos
##iform
##FE
realizando
crema
##culares
actualización
repos
##RO
extremo
##pp
1999
siglos
amenaza
margen
Bern
##orld
independencia
regreso
inn
fisc
cómodo
basada
Ir
alojamiento
discu
ador
hermosa
paseo
traer
inteligente
##rana
War
##ieres
reper
relacionado
maneras
ciudadanía
destru
aumenta
sufrir
tomó
##rosoft
##DA
reconocido
##ume
letra
AB
nación
aniversario
abogado
59
recop
##icana
Color
##hi
Tanto
critic
espiritual
invitados
##entan
##itivamente
sacerdo
extranjero
arma
configuración
cárcel
empu
Descar
entrenador
gor
##vez
##icano
expresó
menú
pár
servidor
proporcionar
LOS
paredes
##iosas
##16
##tusias
publicar
artifici
Oro
digitales
vín
##mej
##18
##ont
virus
##24
##ícula
##cula
Rosa
atribu
##ifornia
extensión
Wal
financiero
##zó
##gráfica
##rillo
máquinas
Nación
Far
EEUU
Bil
diagnóstico
glob
recomendable
actualiz
Eduardo
consejo
tenia
dejamos
inscripción
listo
##inales
##14
Público
##terías
organismos
intensidad
retra
Exper
tejido
formado
consta
rot
maqu
periodistas
##áticamente
##tieron
audiencia
##rigo
##by
dientes
you
plane
gana
emit
##toría
capacidades
enfoc
haces
##ástica
portá
##taría
Control
table
respectivamente
Dentro
3D
recomienda
institucional
##odas
pensado
##cidental
##dis
publici
legislación
entusias
##tn
irre
Castro
Inicio
luces
vital
##tara
impuesto
sorte
demostrado
absolutamente
##fos
Allí
hecha
##desa
##utado
delitos
modificar
reflexión
curi
combate
##TU
Util
Domingo
conductor
escas
restos
tendrás
##inio
lament
##ínea
abandon
darse
97
reti
explos
Diario
##curso
Bogotá
##laterra
##ció
franqu
Bolivia
continua
##ficaciones
informes
##sion
##aras
árboles
avión
extranjeros
tomado
instrumento
##ié
deportivo
eficiente
comodidad
puls
emergencia
encontrarás
##ugía
##fico
##top
evidencia
dijeron
moderna
Sebasti
agrup
Palacio
alf
terraza
##iam
250
##hats
transpor
aprobación
cerem
deberían
https
Felipe
cero
##apas
relato
preocupación
ce
creen
asuntos
##ets
inició
realizadas
pobres
##icen
desin
acu
contamos
##ló
pude
éstos
profunda
##rible
extrem
##antiles
circuito
Excel
publicada
Virgen
acabado
descarga
##ografía
brasile
paro
diaria
California
previamente
acor
monitor
##erías
interesados
Estudios
pop
asistir
facilidad
##quilidad
turno
estrés
##ueba
iPhone
##terial
66
hablamos
##entimiento
##ímp
##cón
magia
abst
##ólogos
quieras
científico
comentar
##voz
cuestion
##icias
##tróleo
120
Char
docente
alumno
enlaces
film
Mayor
divertido
discrim
##CE
árbol
##mán
##pañas
cinta
correctamente
comentó
productores
ponerse
medicina
construc
mód
raíz
##utados
Empresa
interme
Microsoft
dias
##ingü
campeón
Inte
PARA
referente
Bon
desesper
estadio
##undir
editorial
federal
bajos
##gip
Poder
numerosas
##imp
prevenir
##ye
cuáles
diversidad
posicion
infancia
estaría
trae
ahorro
cerrado
##dencia
conversación
be
legisla
mínima
Urb
Datos
asistentes
encontró
Inglaterra
extraño
Ado
cena
##ánicos
Ref
apas
abur
##sito
58
explotación
##undo
discusión
narra
ancho
italiano
aporta
pertenece
desgra
##úp
matemá
incluidos
humil
perteneci
##17
exclusivamente
difusión
petición
India
Comunicación
totalidad
soñ
##queta
hidra
electrónica
estructuras
band
gracia
declaró
cach
##tres
##úcle
drogas
##rimon
top
Sud
##SA
compuesto
aplica
ganador
ocurrido
##inten
##grad
tercero
Nicol
##ídos
consci
exclusiva
hambre
##bamos
Santos
poesía
delic
obligaciones
techo
llevo
##inan
exceso
ilusión
Americ
discapacidad
dedicada
Tres
esencia
plen
Registro
fre
superiores
encargado
financiación
financieros
visu
completar
producido
clim
críticas
inoc
usado
##UM
paquete
expos
conservación
semej
Primero
vesti
autos
##gráfico
rural
llevaba
mete
avances
##ds
antiguos
cans
##ick
reconoce
##árez
efectiva
##alizó
contactar
##idaridad
colorear
cau
tranquilidad
##eración
conflictos
lesiones
Play
reacción
##ft
##gues
horno
##izan
producen
examen
72
recetas
conducta
excepción
brillante
inspec
##ego
##ridos
temporal
saludo
multip
ruido
masco
prepara
religión
brindar
ayudan
videoj
romper
##emática
190
consciente
perj
hierro
salen
pagos
positiva
recepción
##fera
Pág
botel
##19
Bre
rebel
iban
escla
residencia
##endió
##icar
encuentros
Mira
##urias
Industri
caminos
existentes
multitud
directora
tonel
##uca
pendiente
venido
luchar
saludable
desf
Mexic
ejercer
configur
traducción
tendremos
escritura
riqueza
decide
Oficial
interesado
estética
distinto
Naciones
ocupa
agar
muñ
##13
sindica
minist
autorización
truc
plataformas
hol
Kar
uniform
Español
##ll
##ny
creatividad
sociedades
ja
mail
metro
Anti
recuerdos
vuestra
Hid
##olos
##rate
##grafo
##tración
nacido
chocolate
Contac
permitido
pura
flujo
##ht
##isas
piloto
##EG
esperaba
Algunas
TR
campañas
lá
##ierte
Blanco
Rio
atractivo
Sant
intenta
igualmente
Wash
individuales
barra
cicl
##itores
##ráficas
67
ampliar
unión
##cán
bandas
EX
Nuestros
mecanismos
instrucciones
cuarta
herman
Cultural
ánimo
maestros
Vas
agregar
##etidos
veter
##omun
oscuro
equivoc
cump
##incu
Sergio
universidades
claves
calific
Especial
instante
##ucho
labios
##ficio
##cedió
ces
pensamientos
##toño
Dra
Disf
guste
convenio
hue
caminar
##americanos
certificado
##igual
jeje
frontera
##hua
monum
ecu
necesitamos
afectados
##isco
podamos
##MS
eléctrico
sombra
##venil
división
hablan
cooperación
Natural
rutas
entiende
cuantos
resumen
##tive
bajas
cuadros
trabajador
POR
##abas
Pri
##blemente
moneda
Bu
román
##ips
##reros
Amor
automóvil
fum
vertic
Entr
##jería
##lle
adicionales
tiro
inaugur
cantidades
##ículas
almacenamiento
documental
##df
Canad
enrique
fuese
##ueble
paisaje
insist
temperaturas
demuestra
##énd
dibujo
##EA
##glesias
balance
Cuenta
xD
##25
Nicolás
introducir
adelga
##ív
Formación
médica
manifestó
Frente
fabricante
##bra
profesión
cuyos
estric
educativa
Ramón
arque
escul
##ránsito
contrar
firme
cuidados
MA
estabilidad
barco
cariño
reloj
perju
hoja
salido
##hor
despues
agente
repetir
Sierra
Digital
absoluto
podían
recoger
culp
finalizar
encabez
Ka
quieran
Quiero
naran
especialista
CU
##íg
Recuer
PA
carn
Panamá
Indep
##ándonos
##denes
juega
##rov
romp
##IZ
inex
Segunda
dimensiones
Murcia
84
enferm
culo
##sal
urbano
trimestre
lados
ajuste
##ónimo
##ilio
##60
Reyes
##ultado
contrad
CR
##titudes
Fondo
agenda
ficción
electrónicos
##atía
##ester
básico
##ries
with
primavera
Net
Quién
bosque
ejército
Sue
pierde
Peña
núcle
fabricantes
desas
muchísimo
##étr
St
mostró
Insta
europeo
descans
madres
##tander
Encuentra
##xi
japones
murió
SO
Sr
composición
triste
Washington
recomendaciones
estándar
estatu
MAR
irreg
hermoso
señora
calendario
##mica
Mayo
##tamen
##omba
jugando
mamá
perdió
polém
reún
constitucional
##entando
Existen
##terapia
march
##uesos
Roberto
llan
Oficina
Glo
depos
Oper
Sho
individuo
enemigo
blogs
##fin
protoc
universal
adaptación
índice
proven
Ambiente
implementación
##dí
compens
inmediata
ciudadano
auxil
rueda
##unción
##bes
usan
Aplic
individuos
importe
permiso
##tellano
agradecer
Emple
bailar
iniciativas
##martph
Defensa
tranquilo
imprescindible
##onald
europeos
discos
desempeño
esperamos
organizar
Nada
desempeñ
##gando
Provincial
##udos
Saludos
##tría
petróleo
Hacienda
period
##CIONES
instancia
científica
dot
Unidas
poniendo
diferenci
bañ
Auto
turistas
verd
tratando
##ALES
hall
beso
damos
rehabil
expresa
Semana
utilidad
ceb
##ienta
##tricidad
##apor
llegando
##istar
característica
63
facultad
##iber
entiendo
salvar
registrado
rosa
Alim
##bar
confi
criterio
##ibil
Angel
Biblio
sentimiento
pasajeros
nomin
Paul
crey
cien
playas
eje
ant
iluminación
##cir
Ide
Pens
jub
cumpleaños
absoluta
cola
##pot
Martin
conectar
experto
engañ
Sociales
órganos
Princip
##ajaja
dedos
malos
tela
disponibilidad
comunicaciones
##iremos
Gan
veget
##icante
##eciendo
compl
veinte
ater
lat
requieren
eficacia
bebidas
privadas
##atemala
aviso
Anun
circulación
aliv
baños
XIX
juventud
dueño
humedad
Intel
residuos
ópti
##ulaciones
Sar
doce
mister
específico
Será
aust
Toda
millón
argentina
pará
Instagram
basa
pata
Torres
diputado
coordinación
sobres
##itió
terminado
desl
IS
Cuer
hubiese
##toriales
orientación
puro
##íci
mantienen
Regional
##rida
recorrer
llamó
Provincia
gimnas
cuero
Mús
##cimientos
jurídica
consideran
representan
set
##ép
##enz
##uestras
##ósitos
##app
Sexo
jornadas
##mal
rango
ocupar
novio
materias
##iona
portu
plantilla
##iadas
renta
68
gestionar
distingu
asumir
##íficamente
deseos
voces
dato
##ings
##har
##ólico
##dó
##cidencia
vuestro
Ub
Media
Tim
vicepres
modos
##iñ
##icioso
mexicana
manga
##dal
Canadá
hin
ruedas
aluminio
cortes
cartel
Papa
69
utilizados
musicales
Dom
frutas
avanzar
##rey
##uerzo
caj
bron
CH
comprensión
opon
##sula
cultivo
##ispo
impresionante
preserv
Respon
Fa
Autónoma
Parece
catálogo
quedarse
treinta
logo
vuelos
Inc
modificación
Reglamento
Jorn
bonita
madru
quem
incu
Seguro
corpora
metál
productor
industriales
realizados
fortalecer
Blanca
Gobern
1998
constantemente
recientes
62
abogados
##taña
##tecas
ejec
contratación
famosa
##érico
ayudas
sindic
cong
aprobado
QUE
Tam
departam
##aval
700
Dol
queso
difíciles
Rol
presidenta
Vida
veremos
interf
##gulo
##berg
captur
##col
Nie
necesitar
Christ
informado
lógica
Jack
Aún
transmitir
movilidad
capacitación
Trad
89
mirando
harán
Vicente
garantiza
180
Fiscalía
conclusión
##trices
emocion
Curso
privacidad
##unas
competición
##tear
deportes
destacado
etapas
feria
rinc
delincu
##rop
##entó
##́n
##itivas
anunciado
by
identificación
apartamento
neu
exige
Ingeniería
reformas
Resolución
sujetos
patio
Portugal
Log
aporte
señales
app
##40
noc
Rosario
brazo
Bat
permanecer
expansión
hig
##age
fallo
evaluar
SAN
huevos
contribuir
deportiva
PER
creando
##iéndose
magist
imaginar
Cop
show
Marcel
mostra
saga
cír
amable
Gust
modalidad
próximas
embaj
publicaciones
correg
carro
probabilidad
museo
##gué
##ítico
trem
adjud
##garse
Ellos
enemigos
##cada
##bos
adolescente
##obiliario
Mercado
piedras
Bajo
##tarán
##dias
estuvieron
Sy
conocen
Caribe
especializada
añade
Guatemala
cuidar
Academia
barato
satisfec
sumar
m2
##bao
asociaciones
produjo
##abetes
funcionario
agríc
test
debo
campeonato
parlam
enseñar
asal
laboratorio
Ign
generaciones
Rico
virtud
responde
##hael
computadora
##emato
Jur
cafe
bendi
cubierta
indicado
bolas
quisiera
propietario
borde
guardar
##uto
abrió
##TIV
info
##ward
##istos
suyo
regalos
fans
CA
##tube
nieve
maravilloso
Claro
África
combatir
Atención
Aprende
Record
quedaron
polic
verlo
héro
acá
clínica
##úst
##tidas
Feria
Dep
privados
escenas
##ning
mejoras
trama
##acu
Debido
net
recomendamos
iguales
regla
##avo
Guer
básica
teléfonos
sit
poderes
renunci
mecanismo
ponemos
españolas
acudir
trasc
importar
consiguió
descripción
consumidor
muestras
##oros
##ímetros
Cristina
Galicia
redac
Rica
Online
minerales
Guadal
Tall
periódico
Aragón
tratado
basura
##órica
vinos
##iblia
tos
##kin
icon
lac
98
potente
##atón
órgano
líquido
Libro
esquina
##uche
##box
bille
Espíritu
limpiar
viviendo
apunta
Descu
verdes
destacan
Sebastián
reservas
escribe
hábitos
memor
cercana
CC
Luna
51
##wood
sostenible
facilit
dirigentes
signific
añadió
##ernam
Austral
malas
##íncip
##33
torm
##lemente
##eth
##vej
pudieron
Len
verse
altamente
fueran
oral
antic
Temp
Wil
situada
créditos
Oscar
interpretar
Isabel
##ritas
##TOS
##vió
fórmula
permitan
##izaciones
##tela
##enco
montaje
secu
distrito
seleccionar
robo
fruto
apariencia
francesa
conciertos
James
nace
deje
vacío
formal
##ise
toneladas
Bio
arroz
revisar
específicos
##TOR
excelentes
limpio
dices
st
##RES
salas
##vias
Compar
pendientes
##EP
primaria
fábrica
caball
diplom
derrota
retos
columna
dinámica
nucle
respondió
Prop
dichas
Disfru
gráfico
##ámico
ale
esperan
##olla
horarios
##olit
Año
##alax
abrazo
noctur
##tions
electro
conducir
indígenas
deterior
pintar
tasas
##có
adquisición
permitió
explicación
Parlamento
Moreno
poeta
Etique
distinta
Canarias
conformidad
acepta
Ren
Vel
Ejército
##ífica
Publicado
disciplina
autonomía
##atorio
##lay
doy
estilos
77
##fit
idiomas
parar
advers
##ADA
##ariales
académico
aprend
Legis
imaginación
veía
mencionar
detenido
##venci
Guiller
Alta
obtuvo
Algo
prestación
Tampoco
ór
##uez
debut
##íces
alimento
detener
femenino
satisfacer
N°
##teced
divul
propietarios
##unes
##IOS
domést
aci
sirven
Conoc
europea
emoción
##ócra
##ons
ingen
guitarra
disfra
hered
solid
##igna
gub
##alizadas
llaman
accidentes
fach
anci
rumbo
##uena
legisl
##ania
apropi
obs
rica
conveniente
orgullos
Particip
ansiedad
salsa
extin
ejecutivo
diputados
señalado
precisión
##lantes
solidaridad
desemb
ahorrar
manejar
estamp
definitivamente
predic
limpia
odio
existir
Música
##úrg
##unda
Aquel
asociados
Mich
raro
Consul
cerveza
Interior
Fies
Sta
planificación
roja
##rientes
entero
Hen
provincial
acondicionado
habilidad
intim
CAR
##umo
reproduc
reiv
amantes
##énez
útiles
EP
navegación
provincias
establecimientos
drama
levantar
##ision
Asturias
96
listas
hola
##demos
maquinaria
##way
Empresas
gustos
estacion
intenso
bandera
bicicleta
necesito
transferencia
funcionar
escenarios
súper
inspiración
##crito
provoca
Rock
Gir
pagina
Blog
sustancias
Morales
arbit
mesas
preced
##ader
##udiciales
##anta
Castillo
trabajado
##iritu
concur
##igencia
costes
mexicanos
olor
reciben
liderazgo
habia
##ínas
##aqu
creciente
Cualquier
estadounidenses
Calle
##edido
jer
baile
World
escrita
cayó
probado
##fal
portavoz
ord
invita
DES
Alicante
Pes
discre
temprano
AF
##geno
##ánea
mineral
deri
hilo
lej
inicia
lad
##ule
siga
##tiende
##asión
informar
ronda
Deportes
##enciado
##onés
##ges
##egas
crimen
basta
masaje
participaron
preciso
empiez
habló
cirugía
##trado
oído
78
mediados
recaud
Gen
estructur
vigor
ceremonia
doctr
##tadura
episodio
##dem
proceder
insul
Administra
opos
##ísimas
##CH
sufrido
obligado
##gin
raza
solucionar
contratar
únicos
vea
##lix
Productos
referencias
aceptación
tác
Guillermo
cómoda
##inete
regresar
aparato
prestaciones
navegador
##drán
dirigir
evolu
inaugu
marcado
exclusivo
integrado
##tipo
físicas
femin
inser
terren
Cabe
aficionados
favoritos
creada
##ispens
fibra
##tarias
valoración
automáticamente
##tle
define
mari
##quillaje
Michael
reiter
deseas
##TRA
podríamos
bancar
##sh
motores
toler
continuidad
My
transcur
medir
##sung
du
SER
comenzaron
balón
imagin
##edra
postura
conocemos
quiso
inyec
##ucar
serían
investigar
ayudará
Maes
básicas
asomb
##tuario
Victoria
##lazar
Gro
##ture
smartph
obtenido
incumpl
vigilancia
comidas
76
##deo
Reserv
símbolo
reglam
Tab
elevado
Raúl
prevent
Marco
##ónicas
jurídico
bat
Isla
frust
Libre
William
publica
##azz
patro
castellano
colombiano
pérdidas
cristianos
Descripción
une
suficientes
aval
minim
otoño
órdenes
poquito
escog
civiles
excepto
Alfonso
fija
reduce
ED
##seg
GR
cajas
independientes
900
Cooper
ingresar
##lash
Alto
estaciones
éstas
hidro
modificaciones
descubierto
alcanza
asesinato
vivido
##entamente
clásicos
negociación
plantea
atraves
88
restr
portátil
metas
dependencia
##dadas
##peta
coger
dirige
Terc
prendas
##into
bienvenida
panorama
fomentar
combustible
procl
Hel
##rece
##tilidad
salario
Capital
Den
decreto
ducha
Lit
Amazon
gato
Medicina
##cara
argumento
pisos
Blo
ilegal
Patri
Tienes
Mana
favorito
Zona
cuánto
##ence
parad
sentía
abandonar
RES
Profesional
##irió
habido
##usto
Tecnología
acontecimientos
rema
cuentos
educativos
agro
hu
CL
prestar
##UB
estando
equivalente
1997
confes
recol
parcial
estreno
contempl
sigo
soldados
indispens
##ondas
vende
##tab
Cés
PL
Acción
##etín
respet
ricos
Octubre
descuentos
Marketing
felices
pareció
silla
cuándo
empresario
Sitio
Chá
One
Gabriel
llevando
semillas
cae
##TC
intu
cortar
pasta
Habana
introduci
disposiciones
personalmente
precisa
Ur
embl
vag
signos
registros
Europeo
acumul
Psic
corporal
largas
campes
té
regulación
provocar
expresar
Ayer
sentirse
mier
Foro
dispu
obstá
Madre
llamados
##jeras
##tumbre
enviado
fracaso
resultar
practicar
intentando
congel
##icidio
desm
surge
##TS
sello
agra
ME
devolver
curioso
específica
##bia
afili
fresco
Tiempo
ácido
biblioteca
Ciencia
Financi
llevaron
esenciales
vieja
ONU
Igual
consentimiento
irregular
neum
kg
##radores
##opol
fiscales
largos
subray
nº
clasific
Pap
Fuente
Pros
dormitorios
##aciÃ³n
hogares
construido
Video
pudieran
caracteriza
che
tránsito
impulso
Selec
madrugada
Añ
bau
##icul
73
descenso
##lim
Bilbao
vueltas
gustó
Id
ende
##merc
fascin
caballo
Flores
oración
calent
Local
ur
realizaron
kilos
específicas
Sigue
Wh
fuimos
diabetes
##GA
echar
##odía
heridas
##rendió
fus
inmun
contará
temor
gafas
UR
cuadrados
Gafas
camiseta
cuota
Docum
pongo
convivencia
##ímenes
reino
Asia
determinados
##gl
Hugo
##anal
anteced
Santander
arru
rebaj
geog
##enza
ejecutar
Ruiz
templo
excelencia
curiosidad
Azul
eliminación
turístico
fotó
reina
facebook
seco
suspensión
suficientemente
##isdic
señalar
Distrito
##work
##ots
##rirá
74
dejaron
dedica
##odón
Coci
vecino
apareció
das
hisp
Ul
##ni
##atales
FM
##tológ
camar
creciendo
relatos
##guardia
liga
contaminación
Gil
vers
LAS
##ani
##iental
##oli
Rem
##ándola
particularmente
Senado
amigas
escoger
contribuy
Víc
diga
respaldo
arco
##entalmente
Hal
##ERO
impulsar
##oth
marcar
listado
combin
##emn
Región
elaborado
tuvimos
recl
tribunal
##écord
##orcio
causar
respira
republ
Víctor
salto
Lee
BB
##zadas
confirmó
##rile
diag
rutina
afrontar
frutos
posiblemente
creemos
##ager
##ficar
recin
traslado
Haz
##endientemente
inclusión
renovación
twitter
##garon
##ámenes
##rue
paga
relacionada
Relaciones
rechazo
continente
amo
Cine
relevante
##22
##etida
cultiv
milag
quedo
inflam
189
ego
explicado
ademas
incent
##usas
##ms
progreso
##edida
psico
luna
ben
torre
trac
Maduro
feste
establecidos
Usuario
proveedor
patrocin
Guardia
##abo
Chávez
Ambos
refleja
##oluciones
golpes
ára
Zapatos
tonos
Mode
Home
negativo
elector
bomba
vivimos
recoge
##encialmente
pensaba
mío
gradu
naciones
crítico
colectiva
monto
##ENTE
##tom
87
##enario
insu
fes
reproducción
tramo
Calidad
cartera
##tima
amenazas
Anuncios
placa
##eck
Latinoamérica
vestidos
inscrib
##sto
añadido
asesoramiento
riv
disponer
##gación
excepcional
Alonso
event
##izando
Venta
transparencia
panel
93
hones
##gia
##allas
raíces
detectar
verduras
costumbre
Núm
##ecían
##TV
conducción
Robert
párra
creó
##uerta
electricidad
dignidad
##idero
milit
Pac
disfruta
policías
##ecomun
parada
ideales
percepción
denominado
notar
Observ
monstru
Categ
##ajara
lesión
especializado
pelic
##cat
encanto
maquillaje
tac
ofens
orgullo
dada
espiritu
##PE
##cinas
haberse
mort
Adri
ámbitos
##tropolit
raci
ara
Nadie
oeste
compe
##adol
eco
charla
brinda
montar
baratos
celebrará
Secretario
firmado
fría
destinos
Estra
sentidos
##orra
Luz
##venido
factura
persegu
##tega
Noviembre
propag
ofreciendo
separación
char
terminal
1995
##monio
Quizás
##GT
sostuvo
bode
delantero
pesca
negativa
representar
conversaciones
##orden
revistas
##diales
1996
79
##NA
aves
##entino
##tirá
##temp
86
seguirá
SA
##iertas
##bur
octa
Revolución
mentir
##izó
quit
ventanas
hablado
caras
culmin
##íso
##dón
suministro
##ERA
terapia
Canal
naranja
Sent
vayan
garantías
Din
##uésp
LE
precioso
##cen
observa
autora
##tea
Navarra
##ecidos
cañ
nub
amarillo
apell
frecuente
celebrado
esposo
envej
##íncipe
futuros
organizada
papeles
previs
lanzó
paciencia
Evan
##nado
Nor
Mul
manifestaciones
incorporación
productividad
trop
servidores
empleado
determinada
viva
Ignacio
oficio
mutu
##áz
seguimos
hielo
1º
farmac
participado
consideración
cancha
firmas
teníamos
argumentos
mencionado
votar
AG
Había
afectar
simult
Mesa
Samsung
gubernam
récord
##orca
Agua
##pin
emisión
negros
##ceda
Corea
ganancias
coron
ib
94
lanzado
##terráneo
participan
##mano
tenéis
1994
Buenas
##ándome
reform
Promo
##umer
sensibilidad
históricos
existente
cron
##eto
##íes
Inici
galard
##ísimos
parro
Cádiz
##edos
sienten
buc
ciencias
##gica
##dente
##ling
Extre
##uad
##idumbre
alerta
##irán
quince
resultó
pelota
out
##risto
automa
lateral
vidrio
simples
excur
utilizada
Chica
costumb
##idado
##ath
artística
##ijo
City
Franco
llegará
describe
pescado
destrucción
pertin
conlle
défici
##atch
labores
encuesta
##tz
Fútbol
cuantas
División
espejo
Australia
superviv
##áus
Rich
inflación
secundaria
práctico
viajeros
sc
core
incrementar
Marcos
Cuán
##rias
patrón
cobrar
##alista
tengamos
##azar
We
suplem
ocio
perfección
duelo
destinado
##olar
Jard
consultas
report
fruta
Wi
misterio
Fo
frances
##uth
litros
##pal
1000
##jó
Raj
apreciar
conozco
Tend
##ax
sufrió
chino
cinemato
aventuras
subida
Obama
diarios
catalán
cubano
lanzar
Claudi
talla
protesta
huésp
hacían
prioridad
##23
Ángeles
manz
variables
escapar
afectan
traje
mostrado
inal
##Ã©
entró
tarifas
clásica
dup
Campo
audiovis
controles
##rimos
hayas
Nota
músicos
Gratis
cuyas
ultra
dictadura
##GB
sana
trataba
mensual
Guía
OR
Resta
temática
Porno
abiertas
##aluación
anot
desigual
proteínas
islas
secretos
carbono
cobre
##ómicas
infantiles
verdaderamente
usos
Escorts
británico
##éticas
inconven
Sha
necesariamente
mini
suena
Llam
##ache
##TAS
Tro
aqu
Otras
pulgadas
ruso
transmit
##ensor
reducido
##oledo
agencias
inund
pilo
contienen
policial
##iéndo
Human
Presup
recordó
##iciosa
sufre
Industria
mach
arries
blancos
dimensión
##ME
##edir
inmigrantes
GRA
##redo
##angel
deportivas
Guti
##pers
click
pá
Ep
estima
neuro
femenina
Penal
##iertos
Obje
calcul
Ll
Tritur
##yl
competir
brind
Oriente
grav
consigo
jueces
##SE
Campeonato
simb
##ml
##dea
Energía
aman
sonidos
transición
Jaime
##digos
Frank
##deras
##adera
##idra
Mall
vigencia
##iss
Sé
socialista
Priv
##idác
##ADOR
desafío
recomp
diá
##ecemos
Ton
apla
titulado
##ija
##eamente
embarc
##estia
Arquitec
disminución
claras
haría
logro
encuentre
cura
##BI
impid
once
xxx
XXI
especializados
César
pelea
Nov
##renda
Ases
##dares
##ortunadamente
discul
energética
parámetros
sabido
##uelve
llegamos
pistas
relevantes
pecado
clan
##uliar
acabó
tranquila
Selección
##egos
tuviera
preciosa
rin
colectivos
im
elaborar
1990
##viendo
adquier
vestir
constituyen
ecos
mandar
Compañ
salga
presidencial
colegios
indican
##tizar
satisfac
defecto
##ULO
Página
presidencia
singular
Lar
favorita
Gl
hard
Respecto
pesc
ligero
caro
ligeramente
##iler
quinto
##TM
montañas
##itis
Gustavo
##enzo
responsabilidades
##ezcan
Pese
administrativo
sorprender
divertida
##zón
##ídas
##adería
depender
interiores
Iv
confec
incluida
##érg
flam
toman
sufren
##cam
extraña
Sand
##endoza
defien
metodología
##quero
##ARIO
abuso
respetar
estándares
comis
procur
tesis
webs
mandato
andar
galería
Mauri
Cerv
testimonio
##TAN
Bay
tea
##mamente
##ilan
conocidas
Análisis
celebró
reporta
##rección
ferro
##rico
##orpora
peculiar
USB
Tú
Técnico
83
Doctor
##ribunales
##drome
Port
desarrollando
escritorio
consa
copa
Biblioteca
liberación
Revista
Acces
desactiv
##000
##ásticos
ensal
curs
asegurado
##TES
edades
signo
cens
##cesto
introducción
acar
alber
gigante
LED
antiguas
americano
recogida
claridad
Intro
funcionan
##eme
facilita
##mado
bacter
Legisla
vs
procesamiento
gravedad
agricultura
inclus
bolsas
cumplen
Lam
despertar
refres
precip
##questa
manifestación
madrid
Camb
encontré
##roso
Salón
##oración
sera
leyenda
abiertos
##evita
##ION
juvenil
##media
DV
lento
habituales
##indic
##turb
Mercedes
caz
Aren
marcador
##inó
mud
##ast
Dominicana
Palab
##raba
Universitario
##uncias
venía
Whats
##tuvieron
instalado
Laura
participó
vaso
Nicara
confirmar
barrios
Poco
##kes
##ótica
disminuir
##ortuna
dirigente
generan
vivos
guarda
##oces
EFE
##taban
Miami
grem
Jiménez
lluvias
1992
lavado
##igar
experimentar
quir
casco
##gena
##lamiento
advir
##uya
Diputación
Guadalajara
escritos
enormes
alianza
solicitudes
Lleg
fundación
##ecomunicaciones
sensaciones
ocurrir
adaptar
link
##far
relativamente
Familia
Empleo
subsid
semin
vuelven
##untamente
Donald
implementar
tó
Toledo
##itada
depósito
CI
automo
Joaqu
residentes
interacción
fama
rehabilitación
linea
pollo
préstamo
dedo
emis
capitán
maravillosa
ost
famosos
harina
gerente
fundador
alcanzado
autobús
jajaja
##riles
mueve
impre
cargar
Stre
fáciles
ci
vos
específicamente
intr
SL
credi
##IDA
videojuegos
92
##win
variable
lee
ple
jurado
##OG
Lea
Primer
internos
aprendido
Cur
pasaba
ester
Junto
Marina
coher
limitado
Sum
jurisdic
terrible
depresión
provis
inesper
##ísica
gesto
Anim
declarado
traduci
##iduría
afuera
pdf
conferencias
culturas
extender
pudiendo
##ordi
déficit
costumbres
impro
anuales
Mendoza
mandatario
##versión
apasion
diversión
tejidos
componente
##my
clubes
óp
determinadas
Max
up
##iblemente
núcleo
##uelva
Conv
giro
exquis
##terna
##racción
Grande
dólar
multiplic
##cuenta
Fras
Blue
Deci
vapor
racional
sorteo
Cic
restaurar
testigos
hicimos
algodón
indicar
Int
ingeniería
82
viejos
Pueblo
Tipo
cuartos
lago
##ólicos
estadísticas
##ián
##igma
Tenerife
ore
bis
lanza
incorporar
indirec
mía
##olvid
hectá
Biblia
##tizado
ms
##nia
bella
##cm
Encon
##íticas
Condi
ambientales
Ce
ampliación
##oya
vuelva
Agust
gastronomía
posesión
departamentos
Precio
grabación
##ázquez
maltra
venezolano
conclusiones
inevita
perjud
##ander
valorar
##ecieron
ensayo
vicepresidente
trámite
financieras
Rajoy
pensé
##izos
juguetes
novedad
condena
##óf
combinar
Caracas
asust
##ótico
Jefe
Dur
Sac
Top
tubo
mierda
beber
Nego
frecuentes
brillo
##egue
envid
hormig
incons
auténtico
Estaba
consumir
tim
repente
gigantes
##econ
verá
acusado
Estatal
desconocido
avenida
demandas
intercambi
territorios
hechas
eléctricos
escucha
##ancías
##ield
Efec
invitación
Supremo
atrap
Romero
##ect
##leto
estuviera
##íe
huelga
ética
hacerle
1993
##andante
descubrimiento
##enciana
Segura
elimina
ocultar
piensan
remon
notable
puse
contado
galle
terrenos
obtiene
##ámb
llevamos
##cionario
proyección
expediente
automática
aline
SI
justific
Motor
males
##rones
##lera
##INA
escolares
NA
conocía
fronteras
farm
expuls
Mod
motivación
radi
ke
Cuar
Álvarez
colaboradores
centrales
##cura
ciudadana
perfiles
aparatos
demues
amante
reduc
Verde
comercialización
Cort
entretenimiento
presupuestos
ángel
Línea
venden
Conce
send
##ínsula
Mariano
Descubre
sensor
proxim
##toras
mantuvo
##onor
Activ
decis
colaborar
Inm
Industrial
absur
Patrimonio
##uido
perpe
alcanzó
tetas
##sea
##teria
esquema
concejal
organiza
Ang
portada
prevé
capítulos
##AA
posteriores
Estudio
puta
indemn
##árs
novelas
juntas
colonia
negociaciones
descubre
fri
Egip
##írez
vencer
Cate
decenas
pist
admir
tarifa
conscientes
Recursos
Área
madrile
vieron
##eng
medias
##iando
Democ
presentaciones
quedando
prin
dispuestos
##zados
Tre
Jac
##ionistas
onda
bolsillo
loco
administrativa
izquierdo
Movimiento
vínculo
asiento
fijo
tramp
salidas
ano
##uu
Enfer
villa
Cro
incap
##MO
contrac
circular
##guna
positivos
##onduras
derivados
##70
interrump
cadenas
incert
rescate
huevo
religiosa
alrededores
Sof
Bás
##adolid
Castell
ang
rurales
##ramiento
Hijo
Septiembre
musul
nube
##aden
pasaron
##dujo
encontraron
Palma
manteniendo
supermerc
acorde
##omend
resistente
Casi
dormitorio
supongo
músculos
violación
Innov
rup
típico
encontrarse
muscular
inolvid
Caf
recinto
##orada
sufrimiento
##emento
salarios
cantar
Ramírez
promete
##érrez
citado
diagnos
quedará
Lan
Cuál
##aduras
##mós
##encion
##tional
Clín
Tit
bordo
registrar
cen
intensa
minería
##ítimo
##acruz
Inglés
presentada
caza
quinta
##anización
avanzado
emisiones
entendi
##amora
##tural
##red
presentaron
calef
gloria
paisajes
##dicación
alemana
demand
corriendo
##amanca
obviamente
##ticiones
abordar
regionales
##xo
gráficos
interro
Valladolid
manej
##rosa
Dia
visible
sober
sta
detención
escritores
##ata
AV
estuve
Puebla
poseen
Rivera
ov
sostiene
certificación
normales
siguió
##lia
tapa
##amar
mercancías
petrol
generado
boliv
continuo
complej
Grecia
##rimas
Interna
capas
Nicaragua
muro
cualidades
creador
##iesa
reconoció
compromisos
MP
Recuerda
Lucas
sentimos
porqué
cálculo
##taje
Extra
unir
jardines
preocupar
sanciones
##trico
##gará
occidental
Encuentro
climático
##otas
##dy
##tock
abus
AT
##ibre
tratados
##ASA
Sigu
complemento
impedir
imprimir
##cida
rentabilidad
ART
direcciones
Gutiérrez
deter
barro
exigir
quie
comienzan
diseñar
danza
Crea
##omosex
independientemente
disfrute
Abog
modernos
CV
Fron
Agricultura
castillo
Recon
Están
artificial
Hub
Hacer
SS
cortos
enmar
encantado
##acciones
miel
##ness
##hop
incidencia
##Tube
aclarar
planos
EC
188
espectadores
##hal
desean
Nike
junta
Ahí
natur
##itco
##tita
##hh
compartido
##ucristo
atraer
Acuerdo
calma
preguntó
restric
Nar
pastel
Sistemas
votación
ascenso
##ezco
habéis
empiezan
##ulados
##lán
sienta
##In
mg
desgas
detenidos
##ladas
visitante
inteligentes
discriminación
queb
vuestros
##mico
Va
hijas
Ale
antigü
Hombres
rab
antecedentes
##dría
##ividad
##góg
perjuicio
acud
piz
buscas
retorno
##cre
Integr
urgente
emprendi
actúa
Stu
supervis
##esas
##logías
##pan
##trans
mantenerse
Paraguay
##rillas
Sos
artístico
Judicial
decora
hí
atmós
abuela
infección
comentado
##señ
actualizar
Reina
ritu
esperado
engan
jajaj
bebés
##illones
Ec
##ige
recre
perdón
pinta
maldi
crean
lindo
##ígenes
confort
gimnasio
adoptar
##CR
poblaciones
judiciales
supo
mentira
angust
recicl
##uar
promociones
compuesta
grasas
##quetas
ed
reparto
cup
recibieron
##cripciones
preparados
sépti
##nar
hospitales
acompañar
vistazo
Bomb
##ford
comparte
molde
comenta
##ometra
urbana
vertical
peligroso
tratan
Roc
Posteriormente
encantan
Juz
convierten
afectado
Mancha
Michel
##queros
rever
Mauricio
##EZ
formatos
pasamos
Respons
extremadamente
lleve
profundamente
parado
fla
sorprendente
##zando
##tena
adulto
comenzado
Stor
##kers
radical
revela
##igue
Repres
restauración
desgracia
dueños
CP
bebida
##teos
pensiones
##JA
bares
##TRO
heridos
Loc
##cionamiento
Sara
Vega
luminos
físicos
Ran
Maria
ahi
##orar
supera
energías
papa
supues
realizarse
desarrollan
##mentación
Lorenzo
Jesucristo
quedaba
cercanos
tradiciones
##vila
pp
##zamiento
combina
##uertos
sepa
china
vivió
valle
tardes
cambiando
2º
dulces
sangu
manifiesto
refrig
vitamina
ligera
desvi
Equipo
afric
indicadores
##adi
##obo
Junio
Honduras
Católica
##itro
ponga
Guerrero
asimismo
Fotos
##clo
avanzada
reconocida
sucedido
convencer
antigüedad
##critos
USA
casti
##fia
cro
Master
diría
considerada
Sección
##exo
partid
explorar
estatales
##ficientes
suya
Ray
Alianza
crees
##oral
ocupación
incur
##vido
oscuridad
gasolina
61
optar
homosex
efectivamente
poderoso
presentamos
sucedió
transparente
tard
polémica
ejemplares
indis
retirar
localidades
conceb
desaparición
descansar
contraseña
Bolsa
ray
externa
reforzar
Torn
Conferencia
otorga
cumplido
XVI
George
captura
procedentes
##iten
Fol
auxiliar
Egipto
indispensable
##cismo
irá
despacho
atacar
##idora
molinos
box
pensamos
acabo
paquetes
presentará
##ilas
Gén
exposiciones
supuestamente
botella
llave
navegar
TOD
pedidos
##21
##áver
aparc
saque
transport
tabl
didác
saludos
##achos
Bill
##gén
##güenza
ministerio
Sport
crece
Fon
cercan
Fuerza
empate
Marta
deportivos
manifiesta
asim
Simpl
Indi
coño
##urb
desafíos
Perio
lograron
ediciones
polla
tecnológica
##aderos
presupues
YouTube
##terio
moch
##zi
hombro
##ecida
gráfica
Empres
efectivos
Directiva
denuncias
##gués
##izas
CS
mur
directivos
##ecé
Ministro
imagenes
cuchar
delegación
##tano
##ampa
relativa
extrema
lap
Pregun
recal
soledad
compatible
contund
narco
apel
manio
banc
Escrib
pion
confirmado
Jon
##dicional
ecosist
##ENCIA
navidad
educativas
##aros
Bri
instant
##uyeron
cristiana
##pl
##yu
consideró
##ding
##gresos
##tit
Abril
figur
publicados
tron
##PO
encontrará
##edora
acaso
Bi
FC
aspira
oficialmente
depend
Atlético
extraordinaria
cambió
Florida
trib
testigo
Joaquín
devolución
dens
##gil
corred
tío
animación
cosm
##uco
Públicas
desv
contener
Dici
Electoral
##ross
piden
##elia
déci
contando
noved
integridad
comprend
conduci
préstamos
##rería
entrevistas
extrañ
Quieres
pusieron
Teresa
hectáreas
creencias
separado
complejos
##áneamente
insta
##oncesto
sabiduría
##gro
posicionamiento
pertenecen
gatos
##zcan
expresiones
huéspedes
cincuenta
pulm
escánd
##abell
INF
160
habíamos
compara
##óma
empa
tropas
universitarios
Quien
episodios
Macri
lógico
DN
prestigio
Ví
estábamos
Chi
##orado
Naci
debió
invitado
cadáver
soportar
##ñoz
##ov
verla
Wa
círculo
académica
vide
alza
observación
bosques
##idable
dram
sobrevivir
auténtica
concluyó
Aprov
##jalá
Ortega
pico
intes
integrada
enseña
incorpora
fases
cil
Presidencia
preocupa
##antía
doctrina
##ANA
cep
apag
perdida
retom
terrorismo
desierto
aroma
PN
##entarias
Disney
Bes
incendio
rasgos
evangel
trate
arreglar
Ident
##ls
convirti
##tuoso
determinación
##ilater
comisiones
into
##uyente
monedas
orient
Word
adapta
##enio
arrep
##IÓN
numero
dele
solucion
tomo
cé
aula
destr
##uelta
##pol
Caja
camion
éxitos
sueldo
participa
escuchado
lici
verte
sano
Suiza
##DD
play
Queremos
Lim
##ocho
hem
110
textura
tecnológico
##ecos
Peter
gem
frecuent
Vers
Fecha
básicamente
blancas
trage
##JO
Deportivo
##edio
inicios
##tif
temporadas
##áneo
##lique
grabar
sexy
Dicho
Descargar
necesitaba
negar
seguía
venga
Mach
##Ã±
destruir
humanas
suceder
conviene
prede
asociado
sentado
cotidiana
UP
evita
##tibles
##ça
##andal
##smo
##adar
trasera
Infantil
seleccionado
entera
lág
data
destinados
Salamanca
exigencias
DVD
Incluye
afectadas
ber
##stein
vocación
Herman
Playa
ganadores
israel
sobresal
Oh
pacto
carreteras
argentinos
inversores
operadores
transfer
Número
ID
limitada
##ieras
maravilla
ira
solos
corregir
adecuados
caballos
##ricas
tome
Muñoz
empresariales
investigador
espl
oy
logros
fortuna
##citos
sumerg
Informe
pilotos
fundamentalmente
Viol
realice
ocasion
profundi
fores
Fan
##lfo
Diciembre
##arquía
ríos
Tenía
##ek
mix
adic
emprendedores
Instal
calificación
regula
##tiner
hipó
rayos
Hy
bronce
##ámicas
IC
culto
##iness
darte
##ols
uñas
QU
enfrenta
declara
contempla
titulares
navide
Mark
##ORM
ayudarte
pira
Labor
##erador
parezca
##ifi
masas
rodea
secues
##hía
Personas
dió
generando
Open
magnitud
LO
Sat
mone
creativo
tib
conforman
químicos
etiqueta
comparten
Vill
encuentras
Últi
patrones
codi
Bot
##rác
acompaña
tatu
limitaciones
lámp
##omen
semestre
sitúa
aprobó
Ramos
Escri
Editorial
matr
parques
Desc
reflexionar
empleos
trastornos
Anal
##ánicas
aviones
Sco
débil
##eñas
Pay
inauguración
profesora
relevancia
hubieran
cart
judíos
concesión
##irch
patria
##GU
1991
##eis
andalu
Lec
mantenido
tristeza
usados
cuarenta
opera
inmueble
decorar
sensible
automático
obtenidos
rid
Ira
perdiendo
bonitas
incertidumbre
##tificado
contraste
especialidad
radic
##low
mante
##tipos
##rent
plazos
Edad
japonés
inac
sombras
salieron
instituto
equipamiento
conexiones
armonía
directores
zapatillas
atmósfera
Big
91
Situ
Juego
complejidad
Frases
entrevist
ofreció
##tens
degust
decirle
secundarios
##EB
Videos
##trica
Suc
##adilla
coj
anuncia
musica
##rina
voluntarios
roca
reacciones
cometido
rebo
párrafo
##menta
contaba
Siria
360
##uts
Post
describir
prevista
conduce
sinies
averigu
OP
foros
habiendo
Cad
crónica
legiti
##tag
frontal
plenamente
BO
renuncia
territorial
##rill
ambientes
goz
personalizado
camisetas
mostrando
correos
Sw
encer
hagas
consult
impide
PRI
aparentemente
aseguran
Rodrigo
IVA
##ku
reconst
King
Has
Alc
destacados
##uses
##mática
sed
semejante
fortaleza
Medina
fieles
informática
recar
decidieron
Jean
recip
conquist
COR
Lev
decirlo
permitiendo
electorales
##ave
flexibilidad
cubre
och
##vado
irse
Caball
Excelente
Transporte
liberales
unidos
jab
poemas
extremos
envió
##ARC
tirar
Constitucional
##yac
Conven
desarrolló
##álogos
Juventud
Tem
ensayos
##ERS
Cont
##lywood
Igualmente
presentarse
##EX
mascotas
Elena
##ueven
##oba
invis
##éricas
##tillos
Estás
reúne
##EF
respir
certe
Vent
Park
Existe
##jada
supuestos
##elli
atrav
bola
rapidez
Fra
recurrir
Tour
Camino
negras
arres
capitalismo
medición
Cuerpo
externo
Extrem
##gio
desaparecer
cuotas
reen
parto
ladr
conductores
Diputados
masculino
aquél
Nombre
Técnica
ejecut
informaciones
custo
cubanos
pantallas
firmar
Env
financiamiento
urgencia
Ampl
##ions
##ilado
fantasía
persecu
claros
bloqueo
Declar
intenciones
##urt
exámenes
admit
##itaciones
pedi
Eu
potenciales
##BRE
Resid
Sky
Terri
sindicatos
desenc
protocolo
dolores
##guas
Herrera
nariz
##amarca
someter
ramas
registró
concepción
locura
italiana
off
Esperamos
Capítulo
nervios
carg
reveló
sor
Habl
##usk
intervenciones
Pilar
##ueras
Vasco
secciones
Parte
lan
conservar
##édito
concretamente
deportistas
cogn
sustancia
estés
Cuatro
insec
Pra
Debe
Ke
Olímp
PU
turística
Quizá
química
sospechos
quita
##fitri
cruzar
##rente
##tinos
extraordinario
130
atrib
hallaz
Josep
Alfredo
costado
Baja
futuras
disfrutando
##unya
choque
cerró
##didos
decep
encontraban
##cran
sobretodo
formada
##intendo
entregó
falso
Pot
conmemor
##omina
##book
CAM
Conocer
consejero
comedia
Proces
corresponden
comprado
verificar
Ace
constitución
sillas
aborto
volar
Rojo
Beat
Villar
conjunta
empezaron
propuesto
##istente
Sep
##érpre
Comentarios
##ENA
prolon
convencional
papá
desb
##ándolos
##etidas
Medel
reseña
##ocos
ph
Sop
naz
Consejería
cond
Supon
Mallorca
vegetales
##mel
Pul
SP
exteriores
conectado
Veracruz
filtro
coloca
higiene
##ze
acompañada
entusiasmo
suelos
exista
cierra
iniciado
##umas
Roy
calzado
Hom
unido
vimos
sumamente
semif
Vin
##urar
SEO
hallar
##opera
Rog
Pacífico
##alición
señores
queridos
sincer
razonable
déb
pav
##ajar
interfaz
guardia
Apo
respectivos
2020
banca
adopción
incluidas
actitudes
huesos
remedio
Conoci
##iki
##rías
aguan
mecánica
decidí
increíbles
envía
corrientes
Vargas
##úe
fantástico
sanción
Ruta
esqu
Marzo
verás
autent
Aten
Obras
sube
significativo
encuestas
Vit
##fol
volante
trámites
Fom
Condiciones
terapéut
denominada
##itch
Aun
##embra
obtención
fall
comprende
##90
##fónica
colabora
##culas
alturas
Avenida
turísticos
Amar
ER
aplicable
proporción
aconsej
adecuadas
##any
ayuntamiento
noble
##ator
tablas
ficha
Tomás
fachada
solicitado
##éano
concluir
efectuar
redacción
##estias
espada
cultivos
oliva
nutrientes
##áut
discutir
plus
Berlín
embarazada
rivales
Roja
llego
grabado
Már
##ecretar
##ívar
BM
mama
meteor
soberan
Champ
Global
guión
barb
resultan
reconocidos
aumentando
Electrón
caído
limón
Pien
llenar
Galax
Innovación
universitaria
energético
tax
pinturas
favorecer
##aps
comparar
incidente
##poner
venezolanos
##dela
neur
poema
difundir
pregunto
Trip
vergüenza
Termin
constantes
fidel
##grada
Mate
empezando
Cocina
recomendación
##char
Deleg
decimos
71
camas
##ori
##alidades
sabores
hermanas
permanece
hipótesis
Libertad
##omp
adent
##ionista
calorías
diámetro
mapas
dioses
ONG
desempleo
##gui
mejorando
limita
##ilados
##abuena
Precios
bloques
gustaba
diseñada
Jal
entendido
sar
Fuentes
embal
transformar
seca
pudimos
externos
##uj
cerrada
stand
Read
##osidad
entregado
personalizada
pantalones
afirmar
Busc
Unos
sofist
##UT
operar
##azón
solicita
##ieta
Álvaro
copias
dinam
centra
140
hiciera
afición
relojes
hero
##ADOS
##acios
satél
definitivo
Reserva
##tex
maestra
tún
vil
módulo
besos
Taller
##ciende
formando
concreta
migra
gastar
religioso
aprovechando
peces
##unt
##undi
periodismo
Municipio
extracción
##unidad
##iros
cubana
Exteriores
Tienen
favorable
circunstancia
hech
##quera
conlleva
##BL
rara
cocinar
trabajamos
comunicar
fraude
apoya
lesb
canto
##tito
europeas
##ING
Reb
##urado
oír
OS
Deporte
hablaba
##65
concil
187
únicas
épocas
FA
espectaculares
Evangel
confid
asigna
##ígeno
Ov
##landia
maíz
##anim
preval
aportan
Rural
Cartagena
##uelto
terres
ht
pido
##aga
ejemplar
segmento
##sex
detección
##JE
Estu
confiar
justa
nu
exci
##ody
Segundo
potenciar
códigos
Señora
preca
Rioja
editor
##ellos
Mañ
Marcelo
DI
Estatu
##fi
supervivencia
mensaj
Limp
basados
RA
realizamos
Suárez
consola
apet
##hum
perí
##éctor
Islas
Gin
Agustín
Burgos
habitualmente
##endos
Comercial
griego
mínimos
tramit
traspas
Pic
apuestas
hablo
anh
##ingos
Caracter
negativos
humo
Casas
excusa
Pok
Ass
talentos
Alguien
intentó
expresamente
corrup
solitario
Seguir
reunir
paginas
Catalunya
IM
subje
establecidas
droga
goma
carpeta
abandono
darán
Quin
##tez
considerando
santo
exportaciones
hombros
##alos
evitando
puertos
fuga
ISO
Sanidad
Compañía
despli
Plus
dieci
relativo
procede
fallecido
surgió
masajes
acercarse
bande
fina
gala
##IENTO
empezado
1989
##ato
Ofrec
Prensa
saca
requerimientos
Héctor
##ensas
Trabajadores
flexible
PIB
Modelo
##itz
Centros
medicamento
##ató
accesible
reservar
##ficios
llamo
nubes
recibirá
ADN
fo
mención
##irchner
Almería
retor
google
Material
elevada
##zco
problemática
predomin
puñ
Pho
sustitución
##ificada
testimon
##cript
oscura
calientes
##estría
##manes
Simplemente
COMP
##ating
gel
semb
DC
Prof
desaparecido
Maestro
cón
volverá
Linux
redi
gestion
criminal
contemplar
##CIAS
alegre
agrega
armado
Serie
plac
Extremadura
anfitri
imponer
XVIII
farmacéut
ida
confirma
dedicación
Silva
##eja
saludables
cercanas
##atiz
PAN
suman
congreso
inicialmente
##tables
tuyo
Nintendo
reporte
compleja
##grama
fenómenos
inseg
Cambi
busco
##ficado
Carn
cotiz
Mens
Metro
Voy
encam
atractivos
tira
restring
chileno
considero
ef
ultimo
comenzará
Buena
##kia
Atlán
chor
académicos
nic
Psicología
##till
##usal
acaban
mide
Prác
orígenes
calefacción
nuclear
certamen
promesa
##App
Edición
explicaciones
lentamente
variar
##ómicos
Añad
contento
1980
follando
Huelva
encargada
##teur
sustituir
##poración
Grado
##ugn
Grandes
gab
Sony
##inares
Cuen
estím
bacterias
##ulsión
saliendo
nombrado
identificado
Realmente
Generales
patas
espectador
Etiquetas
universitario
comunica
mito
itiner
adaptarse
SAL
críticos
it
##lace
##lanos
faltan
monte
muertes
Chicas
Mást
vean
##ásticas
empe
discíp
Bach
gros
aleman
ampliamente
filas
sabiendo
pereg
Aran
##inter
Coordin
cav
Agosto
sacerdote
Boca
##ikipe
##cialmente
abundante
llorar
retiro
músico
zo
herencia
imperial
desastre
deterioro
corona
pensión
fusión
XXX
carbón
bello
mostramos
pasará
##45
inferiores
Archivo
trituradoras
##88
Final
canta
##erato
peores
hueco
sanitario
pidiendo
densidad
Irán
Rib
falla
analiza
##deos
competente
Sor
##DI
refugio
Jornada
ganando
competitividad
én
obstáculos
cláus
comité
##uss
alo
colombiana
IB
gramos
Pueden
MU
expuesto
##íl
botones
##ométr
disponen
##inoso
estaremos
##uo
pack
dial
Producción
placas
pañ
Marc
siglas
sacrificio
brasileño
Tru
darles
imperme
indign
jefes
periódicos
enfermos
Center
integrar
maduras
Gri
Sun
##ivar
Teléf
presion
##ONA
necesite
Prostitu
tecnológicos
primas
fijar
botas
quirúrg
falleció
##inarios
##éndez
ranking
histori
arquitectón
rusa
350
manchas
nervioso
gases
cord
abuelo
semanal
constancia
coordinador
psicología
##iebre
intentado
definido
##grafos
colegas
tamaños
tip
pagan
disponemos
Bru
mio
TI
##undido
conoció
sustent
certeza
International
eléctricas
##ikipedia
obligados
##HA
perspectivas
pir
tragedia
directiva
Arturo
encuentren
debidamente
complementos
industrias
cebolla
transcurso
Ford
Kim
aur
estóma
##vena
santa
propici
priva
modernas
hermosas
##dices
Ofer
Street
##éndolo
contradic
Chan
##tabria
advirtió
utilizadas
125
festiv
Alma
Clo
solv
reparar
reivindic
Sk
Mont
Origin
Green
prohibido
lágrimas
servido
Fuerzas
SOL
pierna
Iglesias
Boy
configurar
juegan
lenguas
##átil
vitaminas
##quería
remun
##mith
##claje
már
##ats
Power
##key
Hac
olvido
##35
buscador
bul
seno
mediev
Conten
seas
operativos
mensuales
odi
##itiendo
falsa
Phil
terremo
preferencias
Fiesta
directos
Carolina
##ordia
cement
Richard
tenis
superado
casualidad
administrador
alfomb
Prin
Hos
Isa
##onde
DIS
cables
##aming
Libros
lingü
debil
##fasis
iOS
Fi
supl
##tía
resum
emprender
risa
terroristas
##gráficas
componen
justamente
##ruecos
##Ãa
improvis
anunciar
Bolívar
##chi
camiones
MI
reflejo
teclado
presta
Propiedad
Federico
##rol
perteneciente
Nivel
potenci
Peque
adecuadamente
Solici
marcó
gracios
Che
sorpresas
##olor
represión
variedades
##ring
ml
proviene
Fig
##algo
##ázar
emblem
##tropolitana
diariamente
bonos
##set
bodas
colch
Fidel
candidatura
##back
polar
aliados
emig
inad
guapa
Canaria
democrática
crímenes
logrando
Bau
funcionalidad
##lec
mediodía
dejes
infecciones
Hollywood
Trituradora
buscamos
delegado
cruel
uniforme
entran
Tol
azar
Manten
sanitaria
operador
##ENTA
cate
##tensión
espectáculos
ministra
preparando
##ándoles
loca
tribunales
pales
aprop
lesion
diarias
Enero
electr
provocado
legado
TIC
App
rumores
asientos
##EO
Alg
intérpre
manipulación
##VI
alumnado
UC
procedente
orto
curva
##quita
prolong
##FA
##ebra
matemáticas
Lanto
##úmenes
laterales
localización
anime
deudas
motoci
##ika
típica
##istán
Felici
duros
comunicarse
##TAL
lema
mural
pez
obvio
nosotras
##GR
afectada
##mis
nac
alberg
suponer
senador
subió
jugó
pí
##estima
castigo
rojos
MS
continuamente
fresca
complicaciones
gole
sacó
sostener
##ak
Sabemos
##éramos
incumplimiento
escaleras
GB
exportación
nor
provocó
vamp
##99
palacio
ero
conserva
Mediante
creativa
pastor
Asuntos
COL
motos
reglamento
##ZA
##alia
agrícola
##jala
prosper
cancelación
##rimonial
##úme
Uso
determina
religiosas
Barb
##mann
disputa
extiende
81
Mexicana
futura
proclam
Lou
Supre
consiguiente
olvides
dure
cómp
cof
##áser
aca
##rs
##acos
Donde
arquitecto
dirigidos
##horabuena
Carre
ajustes
Medellín
cortas
requisito
mágico
Aeropuerto
Consider
Valenciana
golf
Evaluación
caos
camina
maquina
rincón
Paso
británica
bancaria
temprana
centímetros
superficies
deseado
##eban
obligatorio
barcos
Planta
IR
héroe
##ándote
reno
Molina
##venciones
desconoc
##uesa
refuer
aceites
corredores
bolso
nacionalidad
Margar
##quillo
EM
##acias
##fice
##ited
##util
cubierto
Rojas
cargas
inalámb
arranque
reyes
this
sorprende
multin
azo
##uter
estimul
Barrio
causado
jejeje
Todavía
##cusión
##27
Ríos
conductas
condenado
síndrome
actualizaciones
piano
llenos
llevarse
inmuebles
americana
asent
##tones
Municipalidad
contestar
pato
foco
Sing
##triz
brutal
armario
corazones
inox
efectividad
##igan
vuestras
empecé
##ades
Conserv
referentes
Manual
adher
Imagen
presos
leí
iglesias
partículas
Cuenca
Joan
productivo
sabéis
advierte
colocación
porte
Alvar
##écdo
registrados
Jam
Primaria
liberal
rodeado
sustit
espacial
##cista
estómago
diseñador
camión
Jose
jugado
Nob
imit
##ríamos
Nieto
invitamos
acomod
guerras
religiosos
Libert
lucro
adentro
almuerzo
victorias
##ísmo
Conoce
Universal
disciplinas
MAN
extensa
azules
Abra
imperio
Máster
diagnostic
restricciones
finca
Punta
parcel
Mez
EST
Gonzalo
énfasis
##itamos
185
compone
##iense
ingeniero
CF
moverse
Arro
##ecera
significativa
##26
explosión
West
Bet
tormenta
Portal
##illado
exager
linda
Dé
Mosc
##uega
##tuar
certificados
##OO
##vie
Construcción
cemento
alu
emitir
estratégica
adquirido
tomate
experimentado
hs
FR
protestas
Consultado
pondrá
dirigió
teorías
autorizado
caminando
pierdas
posici
trucos
desee
sencillos
Turquía
compañera
##óricos
##aaaa
##get
##alizan
inneces
destro
Científ
rama
coca
intentos
fundada
guías
##anti
##jando
Estad
TRA
cruce
norteamericano
Eres
Emilio
liv
pasados
conversión
declarar
módulos
sindical
ubica
etiquetas
gluc
##luten
hardware
japonesa
manzana
suscrib
Buscar
fár
Febrero
Iván
Deja
encarga
suici
##END
árabe
##zz
##esidad
smartphone
ofrez
##edios
implantación
##pero
Coruña
optimizar
asamblea
activar
poderosa
UV
trayecto
CONS
Debemos
Tig
##acán
Texas
##amba
##óticos
1985
Orgánica
comercios
estableció
refiero
##rául
inmers
cristiano
##seguida
considerable
HP
digno
Física
Cant
inda
gratuitos
##ecería
Fem
tocado
Cantabria
demuestran
alemanes
dejaba
fármac
integran
sigan
Ejemp
verdaderos
maxim
alas
pertenecientes
evolucion
Repar
Noche
cumbre
sostenibilidad
géneros
ayude
Acceso
memb
protege
cintur
Bél
mono
molienda
Título
problem
distrib
Cated
creadores
##eado
enseñanzas
Cambio
internas
deseen
comarca
sanitarios
ola
##video
trastorno
tabaco
##vá
##rillos
Messi
hacerte
comienzos
##iesen
enfrentarse
##trados
atracción
capitales
administrar
##gráficos
##visor
Puente
binarias
Eva
literaria
OC
agricul
Juzgado
completos
salvaje
Sea
visibilidad
vendedor
preocupaciones
otorgar
saldrá
transacciones
Tok
##grados
Procur
millon
rele
seleccionados
Suprema
proponer
Estrel
##anca
OF
Oax
aparcamiento
aislamiento
cardi
anillo
##alim
##éndole
##erra
herida
antio
##ush
entornos
creía
sugiere
sint
Moda
masiva
sucedi
##stem
Prevención
Cul
acompañados
arrib
Cañ
##dadores
Gor
retraso
##domést
cere
##esc
huella
Calder
sientes
Rubén
Mora
escribiendo
impec
Fabric
Concurso
Militar
muros
uruguay
Actividades
ruptura
convencido
sorprendió
INTER
contex
Catedral
proporcionan
infraestructuras
ministros
envas
salva
Jerusal
depósitos
cintura
##inidad
##itados
anécdo
protagonismo
atras
186
directorio
##iko
conmo
triple
exitosa
##itcoin
pájar
saldo
vendido
embar
Estrateg
Mill
##tarlo
Lis
Ko
##ucción
jaja
leve
Emb
Mem
finanzas
Empez
turb
MO
franceses
vientos
compromete
reaccion
confusión
libremente
sonre
licencias
mobiliario
##ville
Premios
ordenadores
haremos
##erica
ali
confirmación
Marruecos
bastantes
llegaba
proto
degrad
rio
##ób
marg
biz
are
telefónica
Amigos
católica
##vic
##oooo
##core
burgues
sobrec
aerol
##ridas
bac
Carrera
disput
enfermo
Pob
##ulador
pm
##LC
querían
faltar
##uarios
tembl
Torneo
sentí
continúan
Convenio
Generalitat
mencionados
Zo
##arqu
1988
colecciones
chal
##tegra
cumpliendo
consenso
##ally
provenientes
##erá
darnos
acogida
museos
sofá
WhatsApp
Bienes
Mañana
##fac
trabajó
##adal
adh
cén
##ugh
Harry
star
anda
intra
intimidad
Greg
refirió
húme
atractiva
Dijo
cerrados
olvidado
despre
recordado
pagado
difici
agresión
Zel
símbolos
##uk
diri
culpable
SC
llamaba
duplic
fur
##cé
Ries
existía
##chado
##uerte
##orias
IMP
##hara
democrático
American
Out
idón
soberanía
mundiales
vínculos
horizonte
More
medioamb
entrenamientos
escándalo
##heim
nutrición
##mol
salvación
Zapatillas
exponer
nacer
españa
diseñadores
secretaria
mascota
pedagóg
concluye
anto
##iner
duer
sexto
merecen
##itó
##edic
recrea
##timo
##óso
vivía
preju
beca
realizarán
Juárez
Proyectos
estil
crudo
filos
##bió
debilidad
##net
colombianos
exploración
oriental
hacernos
pur
inmensa
Navarro
##istros
aumentado
stock
previos
autop
Esteban
delicioso
claus
saco
##diente
Spa
avanza
##iamos
##acete
Espec
establecen
Tech
tí
vaci
simbol
Introducción
policiales
recibiendo
recta
##real
matrícula
crecido
##éricos
migrantes
##chos
inseguridad
sugerencias
supervisión
Estim
postre
##reos
contribuye
##ng
##istía
glor
desmon
entrado
terminan
##laza
sacado
separa
filtros
##iete
##ICAS
imagino
##quete
polit
Galaxy
crip
lú
##ifique
##tigu
Monter
ads
Moscú
Imag
##ensos
##vía
##eneración
Mari
sirvió
pintor
Aguas
respiración
persecución
joyas
Day
concretas
modalidades
##orth
escasos
cardio
acumulación
##amon
franquicia
INS
##uters
Vázquez
##rese
Honor
tocó
##ogén
agradecimiento
chinos
decre
popularidad
palo
##taro
##tone
escorts
desarrollada
Bélgica
League
tuber
misiones
renovar
Sector
leo
desayun
arreglo
acoso
##kel
desplazamiento
ayudado
##ierro
aportes
destina
natal
disparo
pares
posibil
Software
##onesa
##ampl
CAL
dejará
##uce
gustaria
Disfruta
##dam
vanguardia
inolvidable
reunió
articulo
tomaron
##nesto
trasero
trituración
inglesa
apres
##dremos
atentado
vigentes
casual
Pop
dejen
##ped
##illerato
humilde
becas
##IFA
aprobada
Up
Bob
aportación
últimamente
paneles
##ufac
Ciudadanos
Prob
asistente
inspección
Jane
queden
relleno
abarca
contemporáneo
##usion
hermosos
Niño
veng
roto
Bale
##lamente
oxígeno
inclusive
1986
##untamientos
promueve
equipada
stre
apartamentos
preferencia
captar
ordenó
agrupación
almas
##ítima
termine
matric
distinción
Hermos
baterías
estratégico
habrían
menciona
Comprar
Coraz
infierno
lecturas
Mob
ideología
Imperio
socialistas
Suecia
futbolista
##rand
asume
##tándose
riego
permisos
##ison
sencillas
Vat
##érida
bail
Asi
Herm
oculta
##gs
costas
##íticos
##HO
soc
gritos
##udal
##ream
defectos
Tamb
cumpla
estabil
ine
esfor
alarma
rubia
enfri
plana
Hil
Precis
ocupado
Clínica
surgen
Seguros
recomendado
leal
reflexiones
iPad
##ague
Patr
Total
decidimos
##gara
argument
administrativos
positivas
considerados
asesoría
audiovisual
Sería
abusos
horror
combinaciones
##tnam
detallada
supuesta
River
Espacio
entrenar
controvers
extranjera
##vol
tiende
Reforma
sindicato
facultades
balcón
contribución
##ganta
dobles
identifica
##minas
Lugar
Lab
Leo
secuencia
Eugen
idén
repor
OB
apellido
billetes
advert
tern
inú
##esis
literalmente
##reza
boc
Import
demostró
Dani
##28
notificación
##ielos
##tañas
##ónicos
##asis
barras
##ween
charlas
Moto
automóviles
##rino
GPS
use
Ideal
CAS
fotógrafo
voluntar
Sir
reputación
Mediterráneo
##xido
wh
elegancia
##xid
##El
##aré
pretenden
patatas
invitar
justificar
acompañamiento
enfrentan
EUR
Estadio
suyos
cambian
falsas
irri
Xbox
sólida
Niños
##tid
Bene
mid
##entamos
acre
##48
##dula
GU
Cri
instancias
fila
enfrentamiento
sólido
interpreta
Consulta
ofrecido
aprende
seguida
##landa
##ejos
jugada
penas
cib
reaf
Entrada
Hisp
prenda
aprendiendo
concretar
variaciones
compuestos
sancion
Vivienda
cuen
ajo
dental
condicion
##olib
Eleg
distinguir
celulares
Aire
sustan
Chil
reemplaz
pim
obses
busque
Alba
ETA
Arquitectura
##úb
baloncesto
##atones
CAP
diseñados
construida
Oeste
camin
##jales
afiliados
indicador
##En
profundizar
taza
famosas
denominación
##moh
impl
envejecimiento
cobra
horizontal
medioc
##huana
Ernesto
resaltar
Py
Producto
fundamento
administraciones
cáp
Agro
Viernes
Hun
##CIAL
##queo
reír
bombas
##íneas
demo
estir
encantó
solicitó
incendios
USD
epid
minor
reclamo
Brus
solares
denomina
reconoz
combinado
##uciones
##icanos
##jón
Ala
jurisdicción
Colec
inoxidable
saltar
cuerda
lucir
pavim
Chat
camisa
Paco
multa
prácticos
Ayuda
Busca
láser
deciden
##tol
resulte
refugiados
Hidalgo
atento
príncipe
##obiliaria
respectivas
rápidos
Vista
Cursos
partidas
##ize
Palmas
destinada
Estudiantes
Mateo
disminuye
##alizando
favoritas
jovenci
informacion
vinculados
##onios
mentales
Cár
Fomento
venezolana
Thomas
tienden
estrecha
cumplan
continuó
trigo
basadas
1987
Chicago
acabados
Concepción
revolucionario
Jan
distancias
vegetal
ajustar
Alquil
quejas
serp
##field
Pach
Feb
listos
EU
VII
##izador
transmite
pesado
sesenta
Oaxaca
calcular
Coord
back
Mucho
Zamora
coalición
##EE
##ago
Compra
Cy
##dicamente
descubrió
satisfecho
Patricia
trenes
obesidad
##ors
##umos
celebrada
aprueba
MED
capric
desperdi
reproducir
##cientos
Accesorios
genética
líquidos
Diseñ
cilind
Quint
##tona
fino
vela
##usieron
CEO
ángulo
Profesor
barrera
##ºC
pasadas
Indic
retirada
mejorado
cerebral
more
Scho
Trin
consiguen
ciclos
Prostitutas
Wall
Ase
asesino
Ejer
telecomunicaciones
Manz
##bro
Pun
##ierre
Bea
Jaén
exclusión
impone
bebe
Colón
##now
##upe
Recomend
##ere
estacionamiento
Ortiz
mundos
procesador
Presentación
eterna
abandonado
síntesis
entendimiento
preparada
regresa
##tem
Alcalde
##acimiento
explican
##oni
protegida
sensibles
Vig
adu
chanc
pegar
propuso
prefiere
renunciar
FIFA
rendir
divisas
cometer
desagrad
confron
intelectuales
UNA
Verdad
##VO
mantequilla
columnas
integrante
##icular
medalla
comerciantes
mx
Palabra
triunf
Comple
Tribu
acogedor
facturación
Confeder
Smith
ofrecerá
alimentaria
aplicado
lid
deriva
cono
##PER
Oviedo
filóso
Montevideo
permanencia
Justo
muere
defiende
debían
##ANO
170
invad
Camil
##onada
practica
##load
empezamos
youtube
acúst
##itorio
burbu
cobro
parcialmente
prud
autoestima
acop
Promoción
literario
aprobar
##75
Guz
canad
amplias
Eco
ganadora
Jar
Rece
##ifer
##29
##emi
grito
toros
sacerdotes
Metal
extinción
movilización
referido
urbanos
logran
brillantes
producciones
ejes
ente
administrativas
roj
Impuesto
corredor
presentados
PV
##La
##encio
descal
federales
##vimos
galletas
encargados
##aby
Pepe
##NO
inevitable
##medi
XD
tope
##mita
aulas
lente
dudes
inhib
exha
queja
Marca
ele
sintió
plantel
especificaciones
REC
tutorial
Oliv
incapacidad
##px
proteína
extraer
##tage
##ken
dedicar
recortes
funcionando
Saint
incorrec
Presupuesto
madura
##ARA
html
##tamento
hura
cumplió
Multi
Aqu
prostitución
Capit
Sáb
jugo
hueso
rodean
actualizado
borrar
decidi
##róf
##tuosa
textil
pasap
construcciones
Dónde
registra
Sob
aceptado
iniciales
##jet
##ásico
elige
Cob
decirte
solteros
##xa
Ves
austral
pintores
negó
duras
sincron
cubiertas
suaves
tort
dirigidas
prohibición
Resulta
Eric
##iciosos
señalan
chef
trató
Literatura
habita
MAD
##unde
delincuentes
Escal
juzgar
ala
lujos
##tanos
follar
innovador
solteras
##azos
modifica
Administrativo
princesa
paralelo
garaje
tv
espont
públicamente
inesta
Km
Acep
hacerla
hinch
digna
intentan
##íbl
Estación
##scar
Jeho
##doc
informáticos
láp
invas
establecida
terrorista
desvent
Beb
Holanda
irán
metabol
lenta
Avis
Vía
##bras
##ambios
##idro
impuso
exigencia
barreras
conquista
prefiero
##CIONAL
##omi
##PAÑ
##ternidad
##taño
limitar
denunciar
tratarse
comuna
esclav
negociar
editar
Calderón
bic
##mun
unen
adolescencia
##ÁN
rincones
dispuesta
comportamientos
Andre
Fire
chav
recolec
personalidades
Gay
##atina
evacu
sorprendido
Embaj
##formación
peruano
consideramos
jardin
asfal
##urez
Obrador
catalana
Montes
Pir
Convención
obed
Bellas
disper
Contamos
risas
publico
apuntó
Jerusalén
Vigo
aho
##36
##ildo
##trá
mina
contemporánea
Chia
##lazo
cica
indicaciones
obispo
##fl
brec
bodega
Ambiental
acontecimiento
Punto
##jam
Business
Java
botellas
autónomos
intermedi
##alizaciones
##endent
delantera
fuertemente
velocidades
Cho
##guard
lleguen
ubicados
devo
##ulario
portugués
##cidas
Vé
##tancia
##andar
compositor
cariños
flash
ayudarán
favorece
Ry
##venidos
##ólicas
murieron
campesinos
dren
ultima
misa
1984
##ITA
defensor
asociadas
centr
ingenieros
lazos
admitir
Bruselas
reclamar
##mall
mercad
complicada
firmó
##itamente
frecuentemente
normalidad
Tin
facturas
##gusto
fichero
##óloga
desgaste
desarrollados
##ocia
bicicletas
quedamos
##well
Tienda
contamin
Toy
Labora
corrección
servirá
sucesos
postal
luchando
tinta
##ieve
emprendimiento
denunció
daban
gubernamentales
Fá
pautas
Paseo
sanidad
dándole
logística
VIH
comprometido
flota
##ÁS
exacta
visualizar
##uck
generó
visitado
céle
##44
##ass
##endida
eu
FO
det
viejas
marihuana
instruc
autobuses
ratific
##dería
legalmente
##ony
sirva
Márquez
tolerancia
Integral
Peru
pierden
metales
rocas
eterno
Jurí
Irlanda
fallecimiento
rompe
Feliz
##ometraje
afirmación
prec
SIN
Tag
pensó
arb
cansan
marcada
##irre
electrodomést
negativas
mencionó
free
dificil
Rum
tub
Fé
promesas
apoder
Atlántico
informaron
Jardín
Defin
fiebre
##cav
Prepar
Plataforma
Ún
Crim
##endente
piscinas
##igas
sud
funda
prefieren
Finanzas
##cons
revés
##atado
virtuales
##ciller
icono
marrón
Agrad
ole
Audiencia
MIN
luchas
civilización
agregado
##QUE
Gobernador
despedida
Fox
traigo
##CIO
Alo
pól
##icada
vial
desarrolladores
peticiones
provisional
XVII
dependencias
##flix
1982
bandeja
##ily
##izante
##raje
antrop
financiar
Sn
Destac
##uevas
molesta
cosecha
##abellón
RAM
hidrául
##mi
vice
Tamaño
agrícolas
tob
sobra
videoc
fortalecimiento
mero
bellas
ron
compradores
ances
previstos
virtudes
fabricado
Ham
divorcio
sexualidad
##TAR
Normalmente
##amble
fallos
indicando
comprador
adelgazamiento
##cher
desigualdad
##77
##etti
aportaciones
digan
macro
##BO
asociada
periodos
Boletín
pasear
##ther
fauna
presentando
Jord
asegurarse
apropiado
##dole
Mec
Cinco
herido
Alicia
ruidos
Habrá
subiendo
##tte
coleccion
##ulla
##vana
vist
cabezas
curvas
magnífico
asequ
CAN
ancianos
egip
suscep
Cala
adelgazar
Link
##rimientos
yoga
Molino
despo
##úo
comandante
telefonía
serlo
darme
compac
1970
llaves
Leon
competitivo
##idis
conjuntamente
cima
penales
fumar
##astas
trasladado
creció
Mary
reside
perci
Vale
anón
héroes
fantástica
acercamiento
usada
neumáticos
Dado
atletas
legitim
típicos
percibir
deberíamos
utilizamos
primor
Baj
curr
Declaración
BA
portero
##telo
tecnológicas
espan
Seguramente
intervenir
Corn
incorporado
asesinado
plantear
rodilla
emprendedor
##versa
bonitos
creencia
pedimos
testimonios
chilena
neutr
bord
conecta
dorado
enseguida
citada
##ory
concursos
##acar
fós
instrucción
Cooperación
divertir
##óbal
Rela
dependerá
Sci
sabia
##ífer
##tase
llenas
escasa
escalera
##gog
derrib
##cilla
clasificados
amparo
##tum
mostraron
caca
##tienda
Recuerdo
Rena
alteraciones
##CL
Puig
otorgado
lavar
sonora
realicen
reta
perfectas
##inosa
híb
Familiar
consiguiendo
absorb
cenar
##añas
Brown
Music
##rive
##rógeno
Disponible
dedicados
elevar
Perfec
Tarje
jazz
Ponte
divina
deberes
Quintana
obreros
##orros
Cuent
Natal
asignatura
kit
Ningun
desfile
almacenar
formó
Comb
antioxid
involucrados
Lucía
Andrea
Dob
exhaust
decían
broma
molestias
festivales
ilegales
##ambre
##ianismo
Base
Pag
##iff
automovil
exhibición
Rad
tomada
tour
facial
variación
Jordi
deberás
Cristiano
virgen
dedican
olímp
concretos
Vaticano
Valent
##iquia
envíos
errad
Charles
mochila
Ty
visuales
manifestado
actualizada
##iquen
conoces
desconec
robots
reh
##idados
obligada
bach
##cate
##ócrata
Sc
estudiando
eman
subvenciones
Corporación
niega
vasos
casino
buscaba
Óscar
cerámica
verán
##tices
Down
latina
profundas
##IDO
acert
precep
pilares
secos
map
grano
EMP
ocupan
##met
##ns
ofrecerle
##ius
Universo
##edrez
hipotec
##esterol
aran
Miranda
##ericordia
indefin
Cristóbal
##lie
narrativa
querida
##bio
criaturas
elegidos
tomamos
aplas
precisó
rigor
llamas
minera
##anico
cardía
Tap
##etos
##UEL
Cervantes
##gol
##BN
frenar
juzgado
ecuator
conforta
espon
Nu
Ávila
ocurra
##nan
dies
parroquia
chic
Tuc
Agreg
##verde
malestar
centrado
Universitaria
CM
remol
Pis
diab
acusaciones
Televisión
champ
Fueron
miradas
escudo
ciertamente
Cortes
##amina
Hogar
Result
repertorio
rollo
Memoria
digamos
Times
admite
Informática
levantó
##urgo
mezc
angel
colocado
Monterrey
hormigón
Win
reconstrucción
emocionante
gall
coopera
Audio
planteado
arterial
Enseñ
##edo
##asterio
##UES
falsos
News
océano
observaciones
tóx
concesion
curar
garganta
cartón
suscripción
Li
toro
##emora
liquidación
ochenta
elog
##oroeste
surtido
Grand
angustia
Barran
Chap
hígado
##izarse
Filosofía
vient
protector
##piro
produciendo
##loween
VAL
##ICOS
afirman
##uchas
GEN
TE
convencionales
levanta
desvel
Varios
rastre
puntuación
Disc
criminales
carnes
caña
Delegación
##lot
especific
##ingo
##trac
subido
validez
impresionantes
dejarlo
rescat
##áce
propaganda
##sor
##ango
##étera
##pertura
##eamiento
debates
cargado
pasaje
halla
Comen
diam
##vida
trajo
rechazar
##ragona
ram
##ícola
##cesis
##ady
Quím
Campos
PRES
Vera
presum
Perman
lección
emplea
espaldas
RO
mentiras
bono
Sosten
1983
fati
Continu
Lara
índices
transforma
embajador
amas
insign
Teléfono
ayudó
Iber
##ids
jurídicas
Características
##iche
##versidad
autónoma
Vidal
organizadores
abar
Netflix
campamento
##ómetro
##TP
ignorancia
completas
Aparte
insectos
cobran
sometido
teórico
##sey
espes
contentos
eficaces
sexta
Nú
vulnerables
semi
Group
dibuj
##66
Éste
vayas
tarta
indemnización
estudia
emplear
indígena
amistades
alimentar
apostar
##TAM
accionistas
##feo
aplicando
carteles
Ofrecemos
almoh
previstas
##ji
Democrá
cotización
fué
##eek
mezclar
aérea
escape
agujero
electo
IND
Albert
ponía
presidentes
inspirado
pelicula
cuerdas
funcione
viñ
queréis
egres
expuestos
1976
##ícito
fér
reemb
Investigaciones
Redes
Cán
expedición
Paris
inflamación
##Con
atar
tomas
Dib
renovables
Antigu
##íqu
##teres
provocando
term
Reuters
adquiere
TC
dra
válv
colesterol
quiénes
duele
ayuden
Internacionales
Jornadas
repas
temáticas
Cliente
considere
valenci
Valor
Negocios
preservar
##ORES
##less
##erro
Figura
taxi
Argentino
chup
Cof
Laguna
##estes
considerarse
artesan
sic
cercanía
##ispru
propósitos
##riga
Podría
##IE
Ant
alegro
##utrición
asignación
cardiovas
Políticas
capitalista
monumento
##iración
buscado
##kar
multimedia
##egan
esfera
##tán
Morena
analistas
pesetas
recuerdan
repite
tesoro
precedentes
Guzmán
ponerle
gui
remate
1978
Clara
aliento
cosech
Procedi
liberar
mantenga
temporales
armon
Tercera
olas
##ierten
conjuntos
terremoto
apetece
comenzando
##ineros
trajes
##GE
convenios
emitido
Nacionales
errón
estip
dependiente
pases
##gante
filme
amplios
ambul
TS
respecta
gestiones
personalizar
##VE
corresponda
##hí
##ollo
Micro
artesanal
huellas
estimular
llo
daría
peruana
escribo
Ly
interesadas
válido
consolidación
##apo
invertido
venganza
ejerce
suceso
prelim
Colección
Jehová
bombar
Adidas
Clin
##orit
Correa
aprovechamiento
buro
##right
##gaz
cabecera
Jalisco
Pep
Press
##aduría
investiga
podrías
localizar
soport
Hubo
##CD
continuará
paraíso
##río
estupendo
americanos
AQU
abren
productiva
avanzando
hot
Descub
Alcalá
copiar
expone
##portes
utilizó
##limp
sustra
Nuestras
Toma
estructural
producida
plug
##lón
Sofía
hacerme
##abar
Bul
Puerta
rota
rescatar
hospit
ayudando
orgánica
py
##esp
milagro
discursos
orquesta
privilegio
##denal
##ologia
aprovecha
##´s
##íficos
sentim
dominante
##tang
##gría
reportaje
##áceres
equipado
unirse
varones
baratas
House
Banda
abstrac
Esos
DNI
huir
nóm
manuales
home
Izquier
rentable
##onardo
poseer
altar
suspender
psicológico
experimento
Hig
Económico
enm
##lav
Polonia
estemos
PO
##38
ESP
impactos
respirar
expresado
domingos
científicas
aplicables
entendemos
##radora
Licencia
Inten
informativo
incomp
bolsillos
externas
traduce
Prom
terminales
vegetación
##board
aéreo
intendente
gestos
poderosos
enamorado
##olvió
cansancio
lentes
presiones
especialidades
robar
compensación
ofensiva
magnífica
##rgenes
##reste
península
extraños
alegra
Pron
abuelos
sencillamente
ascensor
cuadrado
##obia
sensibil
Contactos
##alizamos
calcio
3º
artísticas
##chester
estupenda
eh
##34
##rencia
robot
históricas
matriz
barata
impecable
mandíb
invito
##ificaciones
censura
##tricos
regalar
deliciosa
whats
mérito
restantes
##dientes
urban
##zob
##old
Sindica
sólidos
Cra
etcétera
Tratamiento
Youtube
Unas
aumentó
atentos
Junior
##ícita
secundario
cocinas
mision
colonial
##rich
Bá
destinadas
##dista
##olis
máximos
IU
masculina
gmail
Andalu
Corazón
cálculos
##erson
madurez
Dice
rosas
TO
rodillas
ventil
socialismo
Occidente
adorn
jes
Comien
chi
Ín
arra
diputada
quej
motocicle
##Ad
##cidentales
alteración
sever
tradu
##lara
##tráfico
nit
MAS
seamos
##exión
Ak
meditación
Jones
Comis
primo
##ucat
acced
atraviesa
##erta
minas
expresidente
invasión
##tizada
traves
obligatoria
preocupes
cementerio
parti
nombrar
##risas
desorden
neolib
mp
ganancia
105
controla
salía
##gers
mega
escuchando
Dor
Christian
Elabor
alcaldesa
Opciones
alucin
##iw
air
notific
Consejos
extranjeras
espectro
##ulan
##uesca
utilice
cerra
##micos
Cáceres
débiles
considerablemente
costar
Gold
##trada
circuitos
Stan
##GRA
pongan
Pantal
esperanzas
##icóp
##acing
Moder
Luci
permitirán
recibo
##32
originalmente
muel
Secund
legalidad
CB
compartimos
DA
Fir
nevera
Chiapas
Equipos
introduce
períodos
##telería
Emerg
Cerca
invent
almend
VER
peliculas
volvieron
incapaz
orilla
##ijas
poli
creados
espuma
granos
satélite
presunto
aplican
pertinentes
Simón
óptica
miedos
importación
interrup
##tosa
tercio
quedé
grueso
SM
Leonardo
inmigración
Sá
beneficiarios
materna
pastillas
prioridades
limpi
independent
Barça
farmacia
##inf
ficheros
alerg
ordenado
elegida
finalizó
nombramiento
sientan
Independiente
CEN
caracteres
copas
Miemb
citar
historial
puri
##teado
Cali
pagando
jugos
Yan
termino
ríg
##hab
Supongo
variantes
conquistar
vinculación
orig
contundente
##FC
influencias
##atar
espar
pieles
medieval
Represent
ayudarle
##ensible
Lanz
Claudia
distra
oscuros
apuntan
Herramient
colo
salarial
##lab
promocionar
##xis
aliado
##amplona
Reun
vientre
exigen
##GP
Smart
sobrepas
tuya
escasez
construye
sucur
protegido
proli
esencialmente
ilustraciones
°C
averiguar
consolid
escar
##ciÃ³n
##carril
agricultores
Albacete
cerdo
Independencia
enfrente
##39
##ÑO
cómodos
Llev
Mérida
estimado
elenco
vacun
Proceso
##rimido
SERV
deseamos
Evangelio
duró
##ometría
prision
submar
monumentos
##ferente
cuader
clínicas
varía
apa
sn
Opin
450
##TEC
##isma
gentes
compartida
##minente
Ilust
preventiva
dinámico
Paulo
ecológica
Comunidades
Capacidad
larg
##gase
Champions
exitoso
Abr
encargo
fabricar
Lac
actúan
escritora
Steph
AU
volúmenes
impunidad
retención
millas
rápidas
##try
inconvenientes
academia
adaptado
participante
##endieron
##PF
realidades
##37
llevada
Quienes
atracciones
##ui
perdieron
separados
absorción
potable
resistir
bajada
Inteligencia
puentes
##lago
setenta
coco
despierta
rector
By
desarrollará
##laje
subrayó
##copio
Ken
anoche
Usuarios
##TEL
gustar
aliviar
aspirantes
lamentablemente
óptimo
consecutivo
excesivo
molé
previsión
precar
cautiv
Band
acta
pelu
##ORA
digit
conting
antel
preciosas
dependen
Ibero
##ector
cated
suc
tox
romántica
fidelidad
##cita
##diversidad
##rinos
muchacho
marx
chaqueta
retrato
BR
1979
mencionada
calcula
convicción
Confederación
dedicó
oportuno
##ancía
Félix
##regación
Abogados
caballero
##ócratas
acercó
pincel
Conj
roc
##ñar
anterioridad
Bir
pones
##titis
desconf
##ava
deberías
reflejan
Alem
Esperanza
Miss
##ulidad
descargas
##ilateral
Histórico
ceder
armados
cigar
abri
cielos
##tice
##áfrica
voluntaria
emergentes
PM
surgir
consistente
##55
curric
ligar
##bs
donación
compartiendo
##IAS
DS
Carm
Enter
##Hz
presentadas
verificación
##ret
Precisamente
##ille
##máticas
cria
Mini
legisladores
juguete
globales
1973
SEG
dama
sierra
##ão
##veniles
estudiado
nacidos
apps
fronter
Program
Roca
##tinal
##orno
##TEN
quemar
rojas
Conci
seguirán
informático
##cería
##ai
pesada
pecados
##pone
##Press
Bretaña
perpetu
violaciones
Tot
institucionales
ácidos
##oreste
##diós
sois
evidentemente
Alimentación
celebraciones
GP
end
sudor
##gración
ove
##ational
lecciones
relativos
almacén
transf
pilas
terrestre
creaciones
4º
surf
PE
##andos
derrum
Sust
Paula
##mate
Austria
Siendo
Claudio
Vaya
milímetros
vinculado
cálido
Eusk
traducir
tablet
trozos
Patria
Mass
##agü
##ARD
Ambas
búsquedas
##eños
inquietudes
##urrección
##ball
abdomin
detalló
bomberos
Margarita
dados
haré
Medidas
aterriz
Tus
dialo
estro
rabia
SD
extraord
Benito
TH
subl
Prueba
corporativa
catalanes
Recientemente
Gerardo
##icados
semilla
laboratorios
##uyentes
##stal
##gico
##etar
bíbl
aparente
embri
torneos
Seminario
hábiles
buroc
metido
casero
freno
Departam
##uesas
amateur
ilim
Tema
Bara
innumer
Profesionales
presa
cinturón
desar
Resumen
centrar
residencial
intoler
##oleta
perfectos
santos
costó
afecto
economías
arrancar
##estres
ondas
ritmos
##món
pega
chis
morales
sutil
ritual
receptor
acostumbrados
Beach
##enciada
naves
acierto
apoyado
Autom
comando
defensores
##mático
tomarse
radica
Terra
Coch
reciclaje
vestuario
Flo
séptimo
Baleares
soldado
sistem
##iculares
##hai
##émica
false
falda
tacto
##olso
contag
Ri
Susana
conectividad
##terránea
titularidad
Ces
Met
dero
mata
##ifa
vendedores
tía
##cidencias
Valores
Dim
ricas
físicamente
remit
Verano
imprim
pc
manufac
##dición
GM
ajeno
aumentan
campeona
acompañan
file
##utin
##iew
norteamericana
radiación
camioneta
convirtiéndose
redonda
##press
tendrían
##jor
valioso
añadimos
220
recub
atrop
recompensa
inus
mercancía
resultaron
cristales
Sego
desequilib
despido
SEC
1975
radicales
Ello
Quito
exclusivos
guiar
##achas
Corpora
resaltó
frescos
herv
##INE
peligrosos
##49
selva
cintas
Dicha
traemos
ced
limitación
llegué
Dal
óptima
viaja
##émon
cuidadosamente
Hit
Teniendo
coincide
llevarlo
##TIVO
fomento
explotar
excursión
catedral
NUE
activamente
##grafías
##cua
presidenciales
gabinete
atendiendo
##mentar
sovi
Fotografía
recomien
Tratado
##nie
desear
##uces
exal
micróf
##tooth
genu
velas
##ridge
##titas
##zano
recipiente
sensores
Sino
índole
narración
aplicada
perjuicios
valiente
algorit
##ósticos
discípulos
cansado
##ínguez
##ih
preferido
Impres
divide
Zapatero
haberlo
demonios
##aching
##ette
Detal
##pedia
asiático
1960
acusación
diera
Die
inconveniente
mejoramiento
wifi
Gobernación
acordado
She
acarici
consolidar
Eléctr
libras
billete
##adro
Ud
avi
##elar
##burgo
##ueta
##TIL
##luencia
transvers
Dolores
solas
volviendo
autónomo
publicadas
delim
helicóp
Dirig
hierbas
aldea
variados
oídos
Aum
vecina
leerlo
libertades
1981
significativamente
transportar
##ink
Mois
Henry
ensalada
computadoras
eliminado
auge
ecológico
realista
inscripciones
Cerro
gotas
mitos
##dadura
##AND
White
lejano
acercar
Ésta
Aguilar
reducida
tiros
metá
directivo
##itenci
##ILL
escond
operan
mediano
despliegue
Gloria
unico
entienden
suponen
antelación
relieve
trauma
competidores
Lunes
##ximo
Run
Hip
recibirán
esconde
vulnerabilidad
Irak
##mería
filial
muñeca
inconsciente
echa
1977
deshacer
coinciden
absurdo
umb
compre
noventa
Fri
mantendrá
##ribe
tramos
rusos
afán
buque
##ject
Soto
Redacción
batallas
##TICA
helado
Ron
reemplazar
afortun
Marx
encarcel
genio
convocado
##émico
armar
##ather
##endar
##trales
fibras
##CN
migración
resuelto
Ene
eficientes
inocente
semifinales
romántico
electrodomésticos
separar
Olimp
smartphones
##ulia
##els
maravillas
orientado
Ciudadana
usamos
##rector
juicios
preguntado
pok
dibujar
custodia
divulgación
aportando
read
Num
conectados
Data
diges
revesti
sumado
comunión
##ape
Om
Igualdad
parrilla
Obra
Huesca
contratado
despleg
whatsapp
podria
lesbianas
Elim
##Fi
Comunicaciones
Económica
Ox
ESPAÑ
Adicional
dietas
desactivados
habrán
militantes
aguantar
Concep
llantas
resoluciones
infinito
lub
Chris
añadiendo
HA
ISBN
naturalmente
geográfica
orientar
profesionalidad
vuelvo
nubl
reconstru
especializadas
planificar
fanáticos
complejas
Café
Brig
##aciona
Polit
productora
osci
Experiencia
##len
invisible
##andés
obtienen
ABC
gent
dominar
cereales
truco
Letras
HO
##als
narcotráfico
animados
consume
proporcional
pintado
pasaporte
provecho
sanguín
divino
trabajadora
aires
inca
sinte
controlado
videojuego
XIII
contabilidad
lote
acent
##trad
poetas
XII
conocí
desple
##arate
Núñez
comunitaria
masivo
##rome
esquí
usarlo
Ferro
Castellón
patente
estrictamente
procedencia
cí
indicada
single
##dilla
bañera
##ejas
peligrosa
estrech
espirituales
versos
exced
ponerte
vinculadas
despedir
elaborados
vej
##stitucional
LU
sábados
sepan
fundamentos
demostración
Tarragona
Aur
avanzadas
carece
##artén
sufriendo
##sol
##uebl
1ª
##aldo
tru
Fiestas
admiración
School
##genos
Dej
sumó
##elle
compré
Obviamente
BMW
Julián
Sra
maneja
tumb
Compet
matices
vina
mortal
##avia
editado
representado
jurispru
##traciones
monstruo
Belén
potentes
irregularidades
##túa
estuvimos
musulmanes
variada
##alupe
razas
Georg
invern
##andro
aprecia
avanzados
envidia
sentarse
fijado
confundir
mágica
visibles
impresiones
aventur
##adajo
Ball
##ijón
Olímpicos
bote
asever
concurs
tablero
desblo
##icket
Marvel
registrada
extenso
médicas
vengo
cómic
hosped
centenar
Alum
ajena
Fru
echo
##quitos
prisa
soñar
apeti
115
llame
profesorado
trasladar
trabajaba
Virgin
Halloween
necesites
emocionales
lana
zomb
Nobel
Coordinación
sinf
supre
Domínguez
llamamos
Entrev
desg
entrando
##endor
alojamientos
##iría
Ens
apuntar
Bran
Régimen
##óricas
tensiones
##iral
##ezo
Circu
##bor
Sede
romano
from
##lf
##rie
Telefónica
aprox
##esto
##idi
produzca
Show
varían
preocupado
Store
Love
Bravo
##ODUC
reconcil
disparos
bit
detuvo
anualmente
contenida
##dalena
##alth
arrugas
Live
##acial
reclamación
Carab
##urio
causó
##iante
##acil
##ioterapia
innumerables
##gri
dog
ordenar
##astecimiento
estancias
##ciendo
dij
asesinatos
opuesto
sartén
Ocho
LG
extras
reunirse
peli
regresó
afro
tenerlo
Vietnam
##terias
fantasma
leyendas
lác
Lav
creí
riñ
##ulosa
apoyos
Cuanto
caen
marina
gratuitas
##iena
tortura
Prado
recibidos
desnudo
##usco
##etines
##pado
Bell
Det
reparaciones
Ras
bajó
Hill
entregas
excepciones
alquilar
cuchillo
conozca
minister
Jackson
##nab
excesiva
Maz
maripos
hongos
Bolso
asalto
Ultra
sender
Directora
Gris
amado
Viajes
lon
granito
psicológica
conociendo
##crita
##onaldo
##illón
##ст
supermercados
fatal
destacando
barcelona
##laron
ejecutivos
acelerar
Tac
cueva
##46
conmemora
microondas
Categorías
##ándolas
rellenar
##uertas
United
compartió
desech
miró
##nd
Pleno
gam
Encontrar
crucero
##réis
##IER
visitó
futbolistas
complementar
##km
piensas
##isimo
VIII
homicidio
recolección
##TIS
my
##percib
Movistar
referirse
acusados
Subs
##adajoz
Amaz
admira
##crania
detallado
registraron
inyección
adoptado
marino
##quial
relajación
fascinante
comodidades
porción
Interes
gro
delicado
mentalidad
fracción
Jud
Ropa
##utar
Delgado
Tay
PRE
##enció
Bla
Pere
Pamplona
limpias
coy
FL
tapas
ganan
planteamiento
##jate
Siglo
##éndum
Ok
llevas
Are
Recu
catas
Ceci
músculo
Estatuto
##tiza
llevaban
##encioso
estáis
tóp
exacto
tumba
##die
Ojalá
excav
Fut
faltas
Días
##tate
##100
Médico
Naturaleza
plancha
máscara
construyendo
nostal
##ispos
Wood
cerrad
Género
brecha
macho
##cif
escultura
geografía
infrac
High
Team
coch
ocurren
caídas
comunitario
SN
Alan
roles
gubernamental
ecosistema
##inamente
quim
##izantes
chip
Serrano
abrirá
Lago
##pm
##lice
##americanas
estampado
##oll
##dig
relativas
remoto
superó
fallas
antemano
lobo
REG
##tation
##47
protegidos
alejado
recaudación
Full
multic
trasp
lactancia
Mantenimiento
##igra
Racing
innovadoras
Arena
##cadas
##mia
##hidra
Observatorio
especialización
recogido
vendrá
ángeles
perfum
Adam
FOR
cambie
Técnicas
colonias
Menos
étn
System
ratón
Blas
Bella
Bahía
rodaje
vís
desconocidos
previsiones
lavan
deseando
Asegur
convierta
##ampar
utilizarse
Humanidad
ciclismo
prestado
agradezco
Guadalupe
modificado
Metropolitana
##eller
figuran
Mexico
candidata
##ury
mÃ
aficionado
accede
apto
Naturales
estructurales
alianzas
innovadora
Acom
##ote
Wars
tutela
##ingue
Sudáfrica
mecánico
Andes
##ali
ent
caldo
disfrutado
##ione
suelta
Cola
Institución
posturas
criatura
Prima
##boa
Colonia
##ICACIÓN
miseria
Visita
seminario
anat
abo
Armada
Puedo
Gi
enviados
excursiones
##emin
anima
Carb
sometidos
##istes
Bienvenido
desconoce
mueble
Joven
alea
Nuevas
##ológicamente
Muebles
##teriales
Dibu
oscuras
IT
Guardi
crucial
Moisés
##osamente
Caballero
Soria
salones
buf
hinc
clandes
programar
Mónica
desapercib
brasileña
poster
##venta
WordPress
compatibles
sier
convirtiendo
##nio
horrible
##posiciones
jamón
ampli
Ferrar
Micho
profundos
trazado
encaj
válida
Kirchner
##apaci
cuente
beta
articulación
discusiones
Pastor
gin
infinidad
capturar
artificiales
genes
Somb
JU
Oct
replic
concejales
Matt
contribuyen
veas
PAS
##obar
locos
prejuicios
combustibles
##our
chile
##usse
nad
encendido
##lip
dedicadas
Ci
Aé
pelear
soja
destruc
clo
miraba
ayuntamientos
corren
recibida
pierda
elegantes
mercantil
fabrica
abundancia
PH
chilenos
##atan
gozar
terrazas
Jueves
denunciado
Lugo
licitación
legislador
permanentes
Paci
emplaz
amen
##atada
sinceramente
funcionales
olla
Voz
decepcion
desnuda
traído
##amen
queria
religiones
Asistencia
impulsado
ina
orejas
implicados
##árselo
administradores
OM
abriendo
RD
Imágenes
estereo
##ERN
abanico
aceptan
arancel
prema
FMI
arrepent
Steve
tím
ri
aproximada
proponemos
##war
##áf
Exterior
##onomía
##psia
##dure
trabajadoras
Cru
aceptó
Cuánto
personalizados
Kit
accesos
##imenea
Juez
Estruc
##udir
##vial
##ación
Jenn
joya
cancelar
pasillo
teatral
proveer
##inger
interactuar
esconder
tropical
##tti
experimentos
Silvia
estarían
supermercado
##POR
fisi
##fort
##fu
Williams
Probablemente
##hs
Haga
Ele
spam
previas
accesibles
cés
##onancia
Autoridad
aparecido
##bella
FUN
serios
calentamiento
novios
FIN
productivos
##merce
resistentes
comprobado
##eropuertos
##rr
cuna
fármacos
reutil
colgar
240
Kev
##mus
maternidad
acoge
Manager
Design
##gg
Crédito
##alizas
definen
apoyan
supe
divor
titulo
impresora
Vegas
bordes
tubos
aprovechó
##ixa
amarilla
Rap
distor
1968
mortales
BU
paradas
estúp
##untura
cabina
##distas
adhes
##ástima
mueven
renovado
Walter
disfrutan
mencionadas
Galle
amanecer
Tecnologías
##95
##ísta
comunista
Explor
primordial
alivio
##untu
##lla
jugará
ahorros
viu
homolog
salp
Divers
enchu
fórmulas
estatus
oraciones
antis
ii
evidencias
##adrón
Cup
inserción
##aderas
Julia
distribuir
Sábado
descom
Móvil
estall
Guan
Falta
hábito
WiFi
Jerez
edil
##zaba
esclavos
titulada
valent
drá
inspira
diablo
credibilidad
emite
participando
Cara
ancha
católicos
##iscos
secuestro
##apié
Scott
yendo
rean
Envi
tanque
Viejo
##ils
organ
kilómetro
equivocado
pozo
galax
Nex
##larse
##uado
maltrato
##TML
multas
Info
exclu
##MIN
Secretaria
ecl
toques
responden
torres
tardar
Petro
McC
##ueces
##ocup
Legal
representaciones
Ucrania
Victor
Free
Segovia
jubilación
demasiada
residente
demostrando
confiable
cantera
lleven
Esas
MC
Omar
##def
conseguirlo
Piedra
sales
celebran
##dito
Siguiendo
pechos
Alcaldía
MB
orgulloso
##denas
alberga
expectativa
155
##inero
Orlando
Categoría
spa
presentaba
trampa
recomendar
Vac
Cabo
##tern
calificado
importaciones
Adolfo
muestre
##itadas
trono
contraria
significativos
DJ
divertidos
Farm
revelación
descrito
##tics
##antino
lámpara
protocolos
clásicas
aerona
##huahua
fec
muerta
telas
##avi
tomadas
acabe
campeones
agradeció
defici
Manchester
soporta
divertidas
canciller
italianos
justificación
pantalón
##ANTE
run
vitales
ball
vinagre
exigente
manipular
ruinas
interpretaciones
enfatiz
asistieron
Cord
masac
dañar
caram
pig
aseg
lealtad
##ners
reconocen
Lament
inmobiliario
hamburg
zar
habilitado
##ah
fragmentos
Book
intermedio
vano
##ificador
Tos
Aguirre
pimienta
pasen
##tén
##ben
dirigirse
Ner
embarazadas
reservado
##tedra
incidentes
catalog
reduciendo
comiendo
mortalidad
Toro
llamando
##élica
expulsión
tramitación
fichas
jac
##URA
Armadas
inquietud
##ology
agrav
sospecha
##tto
vér
tocando
pánico
##jados
imprescindibles
hallazgo
Fantas
Fla
inmenso
##zarse
pluma
bando
afirmado
sonar
sentencias
Mr
miras
Cuáles
Joy
Laboral
Wol
##endidos
gremio
##mada
Exposición
pronóstico
paradigma
romanos
##BLE
##izamos
cremas
sabían
##ulando
característico
accesibilidad
dejarse
Ever
##ann
observado
Joe
maniobra
##85
Años
paseos
aparezca
totales
adelantado
hilos
Méndez
Ejerci
altitud
televisor
Actualidad
Adolesc
Príncipe
Ari
árbitro
venced
vasco
variadas
conceder
##hoo
##ástro
urbanas
astro
750
Jóvenes
##eridad
ofrecidos
inminente
usadas
##hen
desenv
Samuel
##arch
median
cayendo
Bolivar
mexico
superación
Educativa
Ze
silic
Magn
sagrado
aclaró
rép
Hermandad
##cast
vintage
##star
coordinar
acostumbrado
##gantes
competentes
opcional
despreci
##quear
vinilo
Inspec
GT
##tienden
black
Fuego
##gencia
suicidio
innovadores
texturas
Tér
Gram
dilig
Campus
pestañas
##zal
canadiense
Orquesta
##pad
Hard
traen
##iantes
##licas
contenta
Et
##dera
notificaciones
referéndum
Republ
##íferos
Virtual
campus
demol
Monum
techos
aseguro
obse
plá
##cinco
empeño
##zu
##xeles
percep
ordenamiento
quema
iconos
recopilación
##ERC
mangas
peron
him
##ojo
##ranas
permanecen
humildad
hispano
Benjam
##ÍS
ESO
jurídicos
viajero
tent
Villan
Bitcoin
ciruj
derrotar
interesada
Nik
impugn
círculos
despro
capilla
##ocación
adelantó
cata
podréis
SEM
hierba
##gement
Eran
Ronaldo
emperador
Piz
estadística
encues
lamentable
##feras
##tientes
enz
matan
Yu
trozo
metabolismo
It
asturi
programado
Socialista
##ede
your
CONF
Resultados
Volun
##izaron
Participación
exactitud
Milán
dinámicas
encender
mínimas
ESC
ingleses
##hist
TU
asesores
Coun
Isidro
Medios
muchísimas
refuerzo
cubiertos
Yucat
##edia
económicamente
siguieron
votantes
URL
flora
##iger
##INO
bibliotecas
rubro
##tibilidad
pesa
Apertura
101
##rigor
escort
orgas
república
venció
jefa
esmal
delegados
we
aceptable
2ª
diccionario
ferrovi
##gaba
pasajes
fundó
designado
vera
Descarga
##xs
Procuraduría
plantillas
primarias
salvador
refieren
solía
sendero
##árqu
Américas
desaparece
atributos
consign
##ÍN
sombrero
##copia
caute
cláusula
nostalgia
diálogos
bendición
cuántos
Caj
riguros
Pokémon
instalada
Volver
Nuevos
##cy
encarn
##obs
parecían
repartir
Vene
##loma
##ift
Disco
##VEN
##petas
seriedad
112
Enferme
fijos
##acía
sinton
abdom
desap
drást
Stra
crecen
debatir
Gijón
grabaciones
Magdalena
informal
pesados
Legislativo
imagina
simultáneamente
##alizador
##acetas
##udio
##pool
inútil
afil
perdon
Eng
provienen
orientada
eb
Ges
verbal
soportes
##zaron
##icismo
altern
corporación
impedi
Piñ
explico
National
rúst
##qués
##uble
manifestantes
Jas
that
elevados
romana
requerido
arquitectos
transex
Gam
##usia
##ser
expuso
ates
bala
doctora
##ollas
Secundaria
##UA
tomen
finalizado
mera
atrae
##here
crónicas
desgraci
núcleos
agradecido
admisión
hable
##wich
comprometidos
IX
recorre
provocan
correa
probabilidades
húmedo
impreso
MÉ
##elec
fachadas
1974
conveniencia
experimental
Batman
nocturna
olvida
anexo
##udor
parking
reportes
vacuna
Sín
Certificado
poblado
micros
Relo
bancarias
Bron
agresiones
ic
indeb
Cabildo
Putas
derivado
emitió
producidos
pidieron
dividido
Vo
##ен
premisa
tarda
cotidiano
Pack
Anna
Filip
##lico
escaso
obteniendo
banderas
##ов
##ientales
condens
íntegra
regularmente
reestruc
Diana
llevarán
Concejo
Ret
pub
ponerme
meg
reciba
Gib
Amp
##ámicos
caracterizan
##voces
puestas
durm
afueras
carros
##duzca
##SL
jabón
##EMA
##m2
##76
Uribe
Estrella
TA
Badajoz
##carb
Dicen
violenta
educar
Juvenil
volvemos
acumulado
Ediciones
Sabes
tonal
##igen
fraud
soltar
##íen
Marte
monopol
judío
nas
promocional
##idiscipl
Kevin
organizados
##raft
medicin
Ciclo
Escolar
sencillez
pertenecer
Arabia
provinciales
só
##bel
##emon
voluntario
indios
centen
##óstoles
intermin
Solar
Simp
sw
trece
alli
GN
animado
Arti
##adel
asignado
emergencias
Capitán
##entadas
inadecu
Acos
faltaba
arrend
##RID
exh
veamos
adiv
enormemente
Mike
##logo
DOM
Entra
site
Rue
Memor
##acal
Fórm
Privacidad
##ents
suplemento
protagonizada
compacto
gota
dejé
sobren
equidad
juveniles
mandó
Restaurante
transacción
relata
consciencia
sobrep
coherente
Aprovech
césped
desnudas
girar
##for
##ecidas
heg
selecciones
infracción
PRD
Sindicato
exigentes
conclu
inventario
##elly
imposición
Nel
permanentemente
Femen
FP
DO
Americana
cív
##86
lien
Cristian
durar
carpin
##42
recurrente
Trinidad
##ALL
tracción
quise
Sign
intérprete
clínicos
clínico
progresiva
##ski
Bang
mascar
Ibiza
DIR
##ementos
##ticia
comicios
formaciones
élite
Aviso
optimización
Debes
alternativo
resuci
Casta
##andida
sugerencia
librería
puntas
veinti
visualización
plásticos
inmobiliaria
CO2
NE
patri
psíqu
MON
durabilidad
Gente
##letismo
Enten
Duque
misericordia
##odoro
introduc
méritos
apoyando
Explic
contenedores
Brit
caballeros
Necesita
acumula
Regist
urbanización
mensajería
curiosa
Norma
parecida
diseñadas
##ediencia
Públicos
Adul
ubicadas
chimenea
niñez
Carl
occidentales
portátiles
enju
iniciaron
hincapié
conformado
oculto
1936
##micas
Gracia
tributaria
##uchos
determinante
dividir
Recor
##erry
extendido
pinch
WW
competitiva
impermeabil
##utos
miro
mire
##idada
designación
participarán
masturb
frá
montado
surgido
casado
invitó
Cabrera
encub
##iéramos
##une
estético
Emil
rechazó
##ESTI
observando
justifica
traductor
inédi
Podrás
Empresarial
Apoyo
palma
Compos
HTML
indes
BL
Land
##onel
extens
Alexander
Evid
cómodas
critica
eval
ecles
Realizar
articulaciones
Golf
penetración
Valentín
Bode
Probl
##letos
Ministros
presento
catástro
predio
Agre
Dragon
disculpas
##ITO
##uyo
fiable
##urada
siniestro
##ulantes
latinoamericanos
editoriales
##canes
##erna
antibió
alt
Programas
animo
venían
##toriamente
sinónimo
##isc
Laboratorio
##jillo
imb
RP
maquil
Ago
recuperado
Vino
##idió
##íficas
mandíbula
ágil
bizc
atenta
ponerlo
##DS
Express
escritas
fals
preciosos
mineros
rastro
revelado
facilidades
##texto
sevil
susci
Dif
abrigo
repaso
MX
##parable
fatiga
milagros
construyó
Alquiler
comparto
Ejemplo
examinar
Presidenta
sucesión
cines
demonio
prostituta
supuso
empeñ
##oman
##gata
Ferrari
disim
caros
reunieron
Line
AFP
##yer
Guin
llám
cúp
Disponemos
##gogía
intac
##lana
tuberías
oh
proponen
inundaciones
autónomas
128
Operación
Defens
365
huracán
Box
etiquetada
Nis
ingesta
alcanzan
frustración
Parro
##ANDO
##ecretario
escogido
Hacia
rar
Office
##aná
Países
##valos
israelí
pelos
analista
God
reten
desfil
esquemas
##terres
cerro
casarse
recibimos
Nev
molesto
##ésimo
seguras
##ención
Mam
Ky
tremendo
percibe
Eliz
memorias
superh
##quim
Opti
autorizados
personalizadas
lograrlo
Bull
permitía
Quis
Imper
estarás
borra
Kenn
##ARR
##itness
vendidos
cayeron
Estrategia
##lick
presenten
postres
engaño
estanc
adquiridos
SERVICI
dictamen
Creemos
recordamos
teles
##riera
Viz
tortu
enfocado
##yy
nocturno
Administraciones
reaccionar
clasificar
romance
modernidad
##TT
seda
relaciona
Tony
Edgar
##gáis
scorts
Revis
suavemente
rodeada
requiera
subasta
##andra
sindicales
##sis
rotación
##pus
GO
misterios
Mald
##entr
Yucatán
japoneses
buscadores
Hoteles
cese
Travel
molestia
Som
Louis
impulsa
coronel
Román
luminosidad
Boston
puntual
Celeb
Tub
University
aparecerá
##selo
muchachos
caseros
prefieres
Tabla
británicos
formularios
Bomberos
desbord
##xt
asf
lineal
Crear
pedazo
definida
afines
##gulos
derivadas
Forma
influir
prolifer
Premium
Galería
Península
aproximación
autopista
encantaría
sueldos
vé
diré
Tokio
MOD
##iden
estrenos
robust
recorridos
pobladores
uruguayo
podio
##cones
dominios
pájaros
neoliberal
hur
asignaturas
doméstico
árabes
America
Alimentos
Consum
senda
IA
MUN
##ilandia
griega
iremos
Robin
##OLU
##recu
experta
llegara
irres
RS
dude
Antio
ción
retirado
incluyó
monetaria
planetas
reclamos
rompió
arreglos
preocuparse
recordando
Sandra
vocab
estratégicos
clam
Saf
Besos
repercusión
abdomen
oye
volcán
pila
actuando
fábricas
Contemp
sujeta
reposo
Izquierda
miser
##obos
convertirá
reconocidas
Aplicación
Infraestruc
matrimon
Bautista
popul
##éisbol
Películas
Honda
##ullo
##zobispo
##torce
##wards
Game
entrenadores
Hidro
Conde
orgánico
##adita
Creación
superficial
reza
##cual
Arias
##folio
##tren
Hitler
creativos
tiras
edificación
Royal
Electrónica
filosó
##mbres
agrado
##yendo
##né
##mond
hormonas
responsabil
defra
ingrediente
misterioso
túnel
Misión
Contacto
elaborada
Gr
paul
Flash
redondo
gobernar
jar
##acoa
ferias
1972
##formance
Fred
Matías
monstruos
apartados
##olin
ach
verticales
##atrio
encantados
INE
##Advisor
maravillosas
desarrolladas
Pit
patología
##respons
175
alcaldes
Modi
controlada
participaciones
Michoacán
sensual
##ESCO
esplendor
##anco
deportista
OMS
calificó
desprende
new
inauguró
requerida
ventilación
Pesca
##89
dorada
##witch
reunido
orillas
inher
minimizar
##cr
comúnmente
Martí
hipertensión
##tella
funcionalidades
Polo
terminaron
Toyota
Hua
docencia
cinematográfica
##Ãº
Vald
Bernardo
Urg
Bis
Conn
globalización
Beatriz
##BC
##ílica
##ropi
verific
situados
##tacion
orina
##encialidad
Fórmula
gobernantes
noroeste
implicación
detall
Llo
equilibrada
atiende
##burg
suite
Aman
amplitud
Nap
remarc
cristianismo
coro
aeropuertos
##erape
quedaría
Planificación
Tambien
ensay
PRIM
delicada
##acol
impot
Desay
Pá
crearon
revolucionaria
sentimental
comenzamos
reclama
Occidental
Spe
Antiguo
esclavitud
bajando
Network
manifestar
cuenca
agujeros
##tyle
incompa
##irus
reclamaciones
##antemente
mediación
ópera
##ARIA
Renta
aborda
hayamos
esperaban
devas
Villal
##dita
legislatura
Permite
##ild
hagamos
palm
equipaje
integrales
ilustración
Queda
concentra
##forme
delincuencia
obtenida
UNAM
##quio
solem
caudal
Estar
Violencia
dureza
sacando
obstáculo
##tificar
presencial
##temos
Hall
##trando
Ef
parlamentario
orn
aspiraciones
contribuyentes
incul
Cumbre
perif
Universidades
relajarse
##venidas
ordinario
##endes
RED
insistió
quedarán
##aton
Dev
fontan
maestría
##inilla
salimos
variado
Herramientas
desgar
##azas
##erie
donaciones
pistola
##wagen
##iarias
asegú
debida
sopa
Carnaval
salgan
podíamos
indiscu
Concl
advertencia
extracto
favorables
adelantar
##alent
luce
##ajada
##movil
intercambiar
encontrados
canon
billones
logre
recomiendan
Constit
Mucha
Peso
##omar
##bi
solidaria
Corona
privilegios
adulta
##cuent
clav
Gig
padecen
Lengua
existan
doña
suplementos
endeud
Artículos
Jazz
##adillas
Cog
Virginia
rectificación
##estim
violentos
pulso
Adu
##decer
fiabilidad
estrena
carril
Mit
Series
Brad
verteb
Tecnológico
##tecn
globo
##ventura
Villanueva
mentes
Chihuahua
Gabri
auditoría
POL
##abeth
eventual
Dul
##terest
dotar
Coca
contable
violento
##gura
Guarda
apellidos
##uyan
##quin
damas
##éndonos
##fías
TripAdvisor
NBA
##ÍC
alien
##rack
metáf
Armando
casilla
semejantes
barbar
inmejor
estrenó
Ingeniero
imposibilidad
activistas
dependientes
sucediendo
producirse
##zaje
Química
Invierno
##rimidos
##úen
##dismo
ajedrez
Roo
##vern
Lista
audiovisuales
Veci
revelar
Bs
insiste
Girona
##animidad
pertinente
##eléctr
str
monitoreo
equivale
acudieron
Joseph
trom
conozcan
verlos
XI
majes
sedes
perdidas
Adap
seguidos
predis
VID
remedios
Salta
logotipo
inocencia
potencias
enro
EV
##dían
Clase
##tricas
pizar
Rubio
Oce
Miles
master
habitan
##lanta
inexp
incrementa
esclar
agil
pizza
flamenco
hipoteca
preguntan
colega
cuantía
consiguieron
preparan
químicas
insulina
envían
##ímetro
coh
reemplazo
cocaína
##gramas
visitando
trilogía
asciende
Lamentablemente
Pav
corporaciones
Escuelas
##ragones
##enten
inversionistas
DOC
comprando
activación
1950
##ANS
ventan
South
##dillo
Tucum
enfermería
gritar
desesperación
##omal
secas
nin
formulación
Publicidad
conced
proyecciones
Tarjeta
típicas
desalo
Anto
##endamente
##Station
vocal
##ancha
inscritos
verb
Transpar
perdidos
Aprendi
Responsabilidad
reviv
resuelve
vivencias
informativa
Talleres
atmos
visitan
causando
democra
distribuidor
Ts
biodiversidad
##iernos
engañar
proximidad
nómina
##43
##bert
plomo
trío
célebre
coherencia
íbamos
retomar
##renta
amortigu
metálico
encuad
susur
organizó
buques
##PL
GENER
forestal
medallas
verdades
morena
enunci
orgánicos
Maldonado
Cuarto
calentar
##vero
satisfechos
competiciones
dedi
Frances
Espe
Contiene
Objetivos
Ventas
eligió
distingue
cafetería
destacadas
poste
Arque
##éroes
pedirle
cuadras
##PR
comprendido
valiosa
##guila
granja
perturb
distribuidores
foc
desconocida
encontraremos
JA
##itirá
acababa
portugues
compañeras
Superinten
centa
Veh
desaparecidos
Bush
##IVERS
atentados
apor
##iciosas
ordinaria
Piso
buscará
vaca
esperas
##fato
repetición
##Bo
identificados
Octa
##onaer
##misión
virtu
geniales
verdaderas
##obil
reúnen
##ties
##camente
cocción
Papel
pequeñ
Capaci
mostrará
exilio
anotó
olores
frecuencias
noción
teniente
oriente
químico
carbo
tomará
##abamos
##lámico
enfrentamientos
Dun
alérg
Conver
concede
formales
Acer
##vestre
sumando
jal
##cistas
Jour
insumos
atro
aseo
estímulo
php
rostros
comento
corresponder
interpretado
finalización
brindan
Renault
firmeza
lea
##ulip
empatía
cremall
alfombra
medioambiental
grosor
peligrosas
##ciedad
acusa
feed
Life
optimismo
Claus
abrum
amuebl
Ash
ladrones
Revolucion
Negra
zana
nova
demora
melod
Lux
contestó
exclusivas
##illon
Sentencia
afer
cooperativas
Estilo
yog
agru
vibra
secreta
##Ex
rechaza
Aprender
encargar
horne
version
comparado
##breg
Germán
colombia
##veda
semanales
pescadores
detiene
cole
##OLA
arranca
opositores
##ights
Luisa
escapa
infil
##uladas
##edicto
##lus
congres
135
##cionista
escapada
constituido
aprue
documentales
íntimo
Aj
cues
##rerías
saberlo
Peñ
##rona
Marbella
concentrado
##llo
respetando
##Pro
Tw
integrados
arranc
itinerario
Acompañ
fijación
Juana
tradicionalmente
estrecho
influye
competitivos
##erado
diente
cuadra
plural
##tain
Encar
Apenas
Índice
prole
Contenido
atrev
multidiscipl
mim
dudo
suscrip
Kn
biografía
##sales
Salto
madrileño
térmica
senderismo
selecciona
disputar
Generalmente
controversia
valora
sincero
persigue
##timas
##sche
##illar
compatrio
articular
relax
determinó
destacada
petrolera
adjudicación
instantánea
##Es
ído
célula
superando
breves
links
recopil
agradables
ciclistas
meterse
Johnson
Danza
##DAD
Class
hort
gluten
Secu
##cn
versa
Afortunadamente
clasificado
eleva
comprometida
ojalá
vinieron
maquinas
palp
sustanci
abiertamente
injusticia
Protoc
##cible
elimin
puntuales
##discipl
##ès
Adicionalmente
rellen
acudió
prohí
acordes
terapias
Desaf
anex
pasé
oreja
Abierto
Fres
BBVA
##alina
orgullosos
máximas
refresc
##rian
dejas
significativas
Asesor
robos
consideraciones
comprometer
legislativo
recupera
Angeles
tutor
mediana
Instituciones
EF
##TITU
##kswagen
##lah
Noruega
##peras
lavadora
desarrollarse
1967
patologías
proveniente
##òn
modernización
Terap
agropec
Texto
Recib
décimo
asfalto
padecer
forestales
idio
fundado
convocar
originalidad
perfume
cacao
##udí
escén
1969
variante
SIM
poética
consultoría
malla
parcela
constitucionales
Anexo
colaborador
##ació
##psis
glucosa
##TIVA
procesar
rop
Dinamarca
expandir
Vicepres
organizan
turnos
natación
anticon
tremenda
##elección
mut
##ENTO
volc
Dub
preso
COP
tentación
séptima
rond
erig
Busco
defensas
lámparas
fertil
pasaría
contaminantes
marcan
Diez
##31
observó
peleas
Fores
rebeldes
inters
reseñas
DD
portales
streaming
luminoso
volví
Aplicaciones
##úr
IES
trin
maravillosos
patrio
queramos
Tr
ajenos
##ograma
##tifica
gestor
Sonora
Colabor
Pales
guardias
Parlam
Mobile
Adrián
Reti
Seleccion
anotar
nativos
NASA
Naran
guap
imperfec
UNESCO
partiendo
ardu
drenaje
Actividad
##iba
##étaro
andaluz
promul
deliber
decida
Seguimos
localizado
griegos
Venecia
paises
celos
Libertadores
AQUÍ
sanitarias
bancario
estaré
Correo
##igü
asumió
Hur
##bres
estres
constituir
Ideas
historiador
index
caracterizado
regulares
suciedad
distritos
concluido
abandonó
##QL
indicios
contextos
recogidos
##icidios
creadas
compres
Soc
##nis
operativa
Elige
Watch
Doña
resign
visite
poses
XL
incentivos
##MI
encla
gallego
Abraham
prosperidad
compró
noci
##fan
adjunto
confortable
muchacha
turista
bestia
##identa
ingresó
Trujillo
##cano
asistido
Cav
venimos
creyentes
mármol
superan
conseguimos
basan
##ends
turísticas
ferrocarril
comencé
escalada
bodegas
goza
##ess
cesión
PlayStation
##óticas
Kong
cometidos
Respuesta
jod
vinculada
Much
##uge
coma
Econom
##gamiento
tonto
##200
renal
Vlad
prometido
abas
Xia
papas
zumo
Mexicano
agradece
Circuito
reseñ
##uga
feo
bajado
encaje
Evo
rentas
valorado
Bols
marcos
Time
Barra
280
diecis
##kins
periódicamente
artesanos
aburrido
plantean
##UDAD
homogén
mueren
MADRID
emprend
##rosión
##SON
presuntamente
book
mañanas
insuficiente
sanos
aclara
adhesión
Gom
00h
Asociaciones
Objetivo
republicano
##icha
contabil
manus
Bienestar
facilitan
cervezas
Ath
##UP
##vedra
apetito
bloquear
##rentes
lápiz
invir
confía
veracidad
recogen
1971
##icon
flujos
Card
conceptual
Hermanos
AA
##lon
cualita
CER
peques
convirtieron
estal
max
Work
estandar
mayormente
##ules
##ald
minia
Eventos
Lisboa
sand
elevación
##96
Teoría
Dead
tronco
acuden
carbohidra
agrupaciones
##OLOG
adjun
progen
entrañ
adiós
seriamente
cóc
Escuch
Fuerte
##pen
escuad
Mah
adelanto
##icom
##lass
Gregorio
mandos
##quillas
Arist
Core
##phone
Estadística
consideraba
##arcas
##hacer
Mejores
##endía
Gerente
Rivas
palos
tram
Querétaro
Rodo
##év
amino
disputado
anillos
##tiembre
aparecieron
Operaciones
innovaciones
rall
ST
guantes
notablemente
respectivo
Asunción
criticar
usarse
armada
registradas
desapareció
Sl
Padres
##ésima
Bluetooth
##bus
Roger
marítimo
Cay
##quesa
##anista
fro
consulte
Wikipedia
incluirá
posts
cabez
galerías
padece
pasas
aromas
Curios
nulidad
pasiones
sostenido
incóm
##casa
dotado
Basta
obrero
Desta
##dromo
Inversión
humill
##inho
Señal
##ism
vendiendo
máster
tranquilos
inap
Palabras
Mom
crianza
filósofo
caridad
##ianz
Dy
Cross
finas
criptom
Euros
premium
domicili
hemor
Liv
composiciones
Meg
preocupante
atribuye
gus
##senal
Lil
actualizados
Financiera
hegem
inesperado
##zen
Recordemos
##weet
##inosau
cooperativa
ecosistemas
Neuro
reanud
empiece
Natalia
colap
##átiles
tuvieran
entretenido
##irante
sant
felicitar
trascendencia
Pienso
planteó
carencia
##ibo
Doble
nietos
Idi
Enseñanza
enganch
sepas
mutuo
Tercer
marro
##áneos
compensar
vegetar
mexicanas
sincera
Zar
placent
##iras
Velas
políticamente
recorte
inmediaciones
##emias
##tróp
marinos
##endan
Salas
complicidad
content
Bust
conversar
Institucional
jajajaja
##edy
quedaban
correspondencia
##inista
graf
Gall
remode
templos
Zac
mts
trasladó
cantando
Way
Cárdenas
Veter
ajusta
combinan
Sas
gráficas
##ises
litro
##locu
demasiados
##zy
##teto
perse
##egro
dirá
primario
consistencia
dadas
cadera
viste
galardón
Comenz
mostraba
dispuso
##sica
reactiv
Oriental
##imens
Telecomunicaciones
síntoma
tendré
Fuera
astron
CIA
adicción
boletos
intensos
BBC
Dispone
senadores
230
Janeiro
microb
mp3
Oblig
decisivo
equipar
Stand
Rab
crimin
raras
full
##rick
Materiales
plenitud
disfraz
pestaña
Hot
Procedimiento
dimos
repet
Map
expedientes
terminando
asegurando
Long
bits
##ISTA
Planeta
rumor
##itariamente
catorce
descentr
##landés
BC
Permanente
moción
Ofrece
llamativo
1500
folk
mayoria
pretendía
Llor
inger
looks
fotográfica
menstru
##De
decad
collar
consecutivos
diferencial
allan
Cortés
COMUN
acompañantes
incondicional
notables
homosexuales
envases
frigor
##tabilidad
califica
circo
restante
latín
desped
imaginario
##etario
geométr
perderse
celebr
efectivas
acreditación
##cionados
##ríb
Cier
definidos
Marín
Bruno
cerradas
vistos
buscó
Oru
solidario
Ax
cient
anciano
reflejar
##date
paja
##ueltos
ilusiones
Alejandra
##gob
asesinos
107
##heimer
viable
3000
maleta
acordó
pedal
Vive
bondad
Deportiva
Gimnas
dedicarse
LL
Techn
Compe
##ivado
Pacto
intenci
muñeco
derrotas
advertir
Misa
calibre
hembra
volvía
##habilitación
Salazar
##ibar
Asc
Profesores
desagradable
Rocío
##adell
Neu
adapte
port
ajustado
Ojo
sacan
antioxidantes
Expo
bá
estatua
##uato
Caso
linf
persianas
Camis
corrob
elef
Estratég
interesan
Cloud
106
##sterdam
RR
levantamiento
impartir
Flam
reclu
estudiantil
CIUDAD
recto
colocó
irrespons
gre
suela
venas
Maya
daremos
concesiones
expreso
Tucumán
rapido
almacenes
##entaron
##modo
Volkswagen
sellos
urnas
##esco
ramo
encantador
arbol
##uladores
disparar
reiteró
Solid
Kat
mism
reducen
##range
##ficial
fos
mítico
andando
indiferente
Nelson
Alterna
auxiliares
amores
Recuper
jerarquía
fantasmas
##nabis
LIB
hidratación
cumplim
fabricados
##ónimos
pse
chap
desenf
Citas
peat
garantizado
##élico
##athan
##tch
intercon
Ses
patrimonial
llamaron
tributo
consideradas
##word
causan
moderado
nacen
tumor
##ery
Cuentas
próximamente
transformaciones
señalando
##ads
Ajust
reflexion
##istir
teóricos
discut
pertenencia
PLA
culpables
Acaso
PLAN
nutricional
pausa
garantizan
Potos
indud
cortinas
Avanz
obligó
expuestas
bellos
Anth
##IAL
confer
tormentas
Avi
Lady
##aciente
presentarán
##nea
trián
soltera
Vélez
colorido
Florencia
inno
##enamiento
lapso
alumb
108
sostienen
precaución
##avent
Ross
espíritus
pirám
viabilidad
##wei
Alz
introducido
desemple
##ym
derma
decirse
cuenten
cheque
odon
Fuen
##caras
termo
académicas
estrenar
emisora
##terno
ejecutiva
maratón
ocupó
necesitará
Modern
centrada
oportuna
Alguna
precedente
Adel
arquero
mojado
Law
##avier
Castel
desfavor
Call
cantantes
accionar
##iat
estrope
pacífica
##ícip
##tivismo
##GEN
desencaden
extrañas
Coin
finaliz
102
Grupos
magistrado
gordo
racha
##atri
Reconoci
Templo
evit
detectado
Belg
Polar
Invers
neto
Gü
FARC
magistrados
Fortal
guitarrista
ok
RC
demasiadas
autocon
anécdotas
metaf
##tonas
Saber
ternura
jura
##minos
activas
mango
Auxil
sedi
tráiler
##éstor
##emy
barran
ilustra
farmacias
economista
ganaron
Colo
ceremon
queríamos
sujet
pornografía
concentraciones
##tariado
##cionarios
rayas
GRATIS
##ELL
##portivo
Efe
##sulas
terci
carbohidratos
órb
Light
##dra
Pró
##videncia
acercan
ayudarnos
degustar
estricto
confidencialidad
tritura
alterar
islam
mayús
acoger
fluido
Clinton
múltiple
Hong
desastres
##erve
##ute
accesorio
guionista
metió
##ásquez
seguiremos
existido
colchón
proporciones
##ordas
avisos
Aquellos
##lete
salvajes
##78
productivas
##REC
pep
tocaba
acompañante
Get
##peda
registrarse
cuida
Néstor
citados
Abel
diferenciar
perdi
Key
Lí
##yug
organizadas
compro
##agn
infar
Wat
vuelvan
clausura
apete
blogspot
Primavera
##°C
Rinc
embajada
hallazgos
frio
##ICE
prestamos
respectiva
und
micrófono
##clar
##istra
gratuitamente
##tizados
restricción
urgencias
franja
instantes
##uló
pasillos
comience
cuántas
conocerse
rib
actualiza
##jamiento
vacía
rechazado
But
desarrollos
##sky
Vitoria
Sens
##day
##XICO
##reak
indique
teórica
atardecer
continental
##etta
##ití
robado
SH
rituales
luci
##alor
entraron
adjudic
unanimidad
##lao
creativas
vencimiento
endu
##dillera
Palm
grandeza
novedoso
acento
##otriz
##emo
afianz
incomple
Mala
nega
finaliza
##urados
NI
5º
relajar
enhorabuena
contribuciones
vacunas
encontre
DT
Cecilia
##ange
pabellón
evangelio
##idia
##fri
transferencias
Cirugía
##odin
redonde
##iscop
Siguiente
Vuelta
Guard
travesti
Studio
nucleares
Necesitamos
cabellos
ridículo
auriculares
Siete
Viena
viceversa
norteamericanos
Augusto
##óstol
Escobar
minoría
reportó
##hl
subdi
excepcionales
aumentos
Biz
uva
Hora
honestidad
Pala
silicona
editores
Territorial
Hernán
Horas
ecológicos
Haw
frescas
saci
investigadora
separadas
Page
##ELA
Pronto
##98
pasivo
1945
menús
wikipedia
Tailandia
##veno
estimación
##uty
Cle
obsesión
Mars
anarqu
consumen
##cala
aplicará
spo
viajan
asamble
Rodolfo
##jim
##entará
describen
##vertido
Lew
##ENS
cajón
ciclista
delgada
North
iran
existían
estímulos
socioecon
ponder
##fox
divisiones
ordena
Dark
embarcaciones
cd
asesinados
cór
flexibles
##ISA
planea
##istentes
##ocado
mejoran
repeti
difícilmente
Catalina
Chaqueta
Jr
condenados
juzgados
Games
Contr
feminista
deslumb
##juy
mord
significar
Gabriela
inspirada
Cielo
Mons
pedía
##namente
CRE
##ecular
espesor
jurisprudencia
brus
marcados
esperada
Perm
versátil
Cano
##cionada
Relig
comunistas
Mix
Pur
coraje
Bosque
Lázar
varón
viral
##embras
beneficiarse
sl
leña
Valpara
##entarse
##HH
##rene
aguja
apropiada
procesión
anorm
sandal
Comunista
Elías
insuficiencia
serias
TEC
Conocimiento
bahía
##tory
UD
detalla
Bad
derram
encargó
auténticos
abonar
##gi
gripe
CAB
novel
crom
##carburos
Canc
liderado
##esio
asistió
distribuidos
Agenda
nadar
aproximado
devoción
RT
burguesía
potencialmente
disfraces
aguda
siembra
word
bin
tang
calc
deform
temer
##́s
##tiente
acreedores
comenzaba
Zelanda
##IST
Ginebra
Sudamérica
ambición
rebelión
biológica
similitud
muchísimos
##41
deseada
##ORMACIÓN
Ariel
objetiva
admitió
Lt
Enhorabuena
Utiliza
Arc
ingenio
SMS
Tama
Mayores
conservador
##rase
enviando
decorado
XIV
latinos
directrices
sientas
DIREC
Morelos
nobles
##enter
sodio
##estial
Lum
contradicción
Gel
joder
rej
compatibilidad
Edificio
maniobras
dam
difun
Taylor
extraordinarias
Hierro
aconsejable
problemáticas
ticket
Lázaro
Salinas
empleada
Cír
Set
mancha
ocurriendo
melanc
lidiar
Sanz
EPUB
Golfo
pesadilla
Arroyo
cremallera
##instein
descendientes
Stephen
enta
##losa
fríos
##alas
Democrática
##éndome
Garantía
Berg
reproductor
englo
recort
triunfos
consolas
Jacob
ocasional
autóc
deficiencias
anon
antepas
evaluaciones
dúo
##uza
indicación
canela
mató
##PI
Instrum
representada
merecido
meramente
##asi
disfruten
medianas
pli
Llega
prestan
fotógrafos
curación
##anés
vengan
cruzado
procura
caiga
escur
pregunté
Croacia
Ademas
biológico
inscribirse
recordaba
metálica
Gabinete
ético
profundiz
ejecuta
Consell
potes
Urbano
peruanos
##JER
obispos
levantado
permitieron
heter
psiquia
Etiquetado
sistemática
prototipo
Muerte
veían
INV
Argent
rebajas
abono
propiamente
Embajada
rayo
atendido
directas
difund
##hon
dormido
Perió
sk
conjun
peinado
asequible
concedido
Grad
informamos
anfitrión
Tributaria
##nn
positivamente
apuntado
Eri
abundantes
Frontera
##ruce
##elación
Renov
##ijote
Barack
git
gusten
##rime
bob
mago
franco
contrarres
vocabulario
fotográfico
##onesia
consecución
OEA
POS
Nokia
##MX
táctil
Maestría
auditorio
afirmaciones
navegando
##éticamente
##pla
territoriales
elijas
Pom
Agrup
CUR
Presupuestos
republicanos
cúpula
procederá
puñado
gobernante
jovenes
estudió
Naval
excesivamente
realismo
Auditorio
Mid
amistoso
Viaje
traducido
##ety
anticipación
exquisito
Versión
descubrí
tripulación
##isi
generosidad
ausp
manch
Tuve
estimulación
moléculas
suavidad
Pago
ciego
##ieso
terape
marchas
psicólogo
suba
tranquilamente
Gim
Deber
impera
Fed
Cumpl
pareciera
ligado
##Com
alusión
alarm
publicitarios
accid
##ramientos
eliminando
antiv
minero
##melo
persever
##cro
enseñado
Conjunto
manualidades
Ech
recibidas
cordo
pegado
iniciará
bolsos
##guaya
Best
Flu
estre
Josef
aprenden
Informa
telefónicas
Ronda
##oke
##gate
murci
tableta
dating
tatuajes
multinacional
alias
Nacho
acompañó
##ueño
delgado
concer
desechos
piense
Mód
Fen
##allo
##atural
pureza
estuvieran
OL
asocia
presuntos
compresión
Enfermería
Seat
enre
liquidez
extensiones
Casino
ESTA
interacciones
##guer
tanques
emplean
metodológ
##arote
sospechoso
consultora
escuchó
octavo
minucios
octava
presunta
segmentos
Centroamérica
viajó
fundadores
Superintendencia
Darío
frenos
restitu
Peda
erg
normativas
repercu
orques
vacas
flan
bell
Dream
sacarle
extraterres
Shang
afectando
calaba
Gallar
down
miran
##esen
convivir
##deb
quedas
Bachillerato
laber
nacida
beneficia
legítimo
india
Bow
##éster
estafa
valentía
influyen
fijas
parlamentaria
##éndola
##но
##organ
seminarios
át
parciales
presionar
formados
serpiente
Dro
dragón
cultivar
refin
indio
gradualmente
EMPRES
grandi
esculturas
festivos
##idimens
portería
gad
Coordinador
velada
Notas
##uches
Cadena
Proteg
vivían
elevadas
socialmente
expresan
cortado
opinar
Ráp
gays
maduro
##EDAD
Aqui
cometi
lástima
til
vulgar
rige
arom
antaño
Acosta
defendido
Propor
Establ
Botas
Agregó
Mete
kilo
Carras
##iguración
##TUR
terminación
catedrá
enseñó
##ary
escriben
Pontevedra
repuesto
injusto
##very
vais
notado
atleta
##gener
unida
Titan
Cáncer
íntima
##rang
corteza
alcanzando
vayamos
martillo
Jonathan
lamin
##ра
Laur
Película
Kir
simbólico
##67
Rincón
audiencias
pleg
##tenos
gestación
Teruel
##IDADES
empezaba
ejecutado
##lé
cordón
Conoz
Coc
aislado
plantar
Mercantil
Detalles
##elio
injer
Concejal
Sher
glam
trascend
##adona
pymes
joyería
temporalmente
##úas
Desayuno
declarada
##cter
aerolínea
desconocimiento
Fort
deshidra
acude
causados
Cookies
incrementado
ladrillo
veterano
colm
Evidentemente
##escol
##áramos
##ój
1964
##BR
efectuado
Llegó
analizando
Caz
##tológico
hacerlos
##ditos
320
suscrito
combates
sabio
103
Manif
Comienza
Nick
Periodismo
Trabajamos
saneamiento
espiral
visa
##ifico
Justin
plumas
##agas
Riesgos
monitores
derivada
descubriendo
##tore
1966
simulación
incluya
##jadas
gastronómica
aconseja
funer
cargada
##zamos
Requis
IG
valen
Jujuy
veis
contribuido
visiones
desplazamientos
ajenas
##dol
corporativo
##okie
calib
armarios
díg
éramos
Aer
lazo
Responsable
buceo
Test
Sports
reproduci
Transportes
diar
##inetes
Stal
colocan
apagar
Ferrer
sustentable
encuentres
genoci
divorci
##ticar
Management
perseguir
##BS
Choc
abon
puramente
acusó
Chal
urgentes
queriendo
Horacio
##eroso
dinosau
##rame
Dorm
Personales
Chev
suyas
##goci
##atica
euf
Belgrano
Origen
cómics
##97
recomendada
lam
abastecimiento
Maris
Extran
##radía
definiciones
cubren
titulación
giros
Gio
ejercitar
Usa
bonaer
##uston
transcurrido
cera
unió
averías
aspirante
ful
vivas
aprobados
revertir
104
inciso
cred
Fácil
##ugby
disfrutamos
grasos
guitarras
chofer
metodologías
intentaba
##coz
##earch
qe
Licenciado
UGT
enriquecer
##lería
terceras
Legislatura
aminoá
Necesito
lindas
Bun
aplicarse
preliminar
guardi
actrices
##liquen
Miércoles
impiden
PT
##blas
##istad
antena
1965
Oliver
Acon
relajante
rodar
##temporada
Campaña
tig
reafir
Ali
opina
obrera
FE
Pascual
retener
tirada
hebre
Opinión
informativos
suceden
requerir
cuantita
publican
wa
giras
cruj
agresivo
cn
suministros
humanitaria
##ités
traición
canje
Oferta
pilar
encabezado
Nazar
Yoga
respeta
pra
##pres
sobrecar
##juana
Vivir
Bag
Sostenible
Distribu
hep
cadáveres
Protec
important
##plas
felicidades
someterse
##64
suceda
Cres
TODOS
##TROS
Nadal
anestes
conducido
Varela
Kan
Hablamos
Romano
Za
##ipsis
Lorca
utilidades
cf
discapaci
Importante
Ata
casera
##uber
##ESA
Viva
marcando
Pais
dentales
molestar
##play
1959
piratas
Tir
Borges
inaugurado
Muestra
laguna
parlamentarios
Antioquia
tips
destinar
Felicidades
utens
zara
transferir
##iénd
afe
generados
##odamente
muelle
caprichos
##YA
enlaz
personalización
prescin
Dio
diosa
Quijote
hábitat
Martes
Almac
Dejar
##tures
Back
inversor
##ulum
constituida
##cima
creas
##arde
mantenía
regeneración
1962
intercep
musculares
##uloso
##Res
quesos
pom
##onto
históricamente
inmort
boletín
Emo
desliz
sentada
ques
bea
maf
##rosos
pasara
requieran
Coordinadora
sufrieron
enoj
##erturas
ensamb
consigna
estables
ocupados
Soporte
utilizo
resultante
tablets
Oruro
maletas
escucho
decente
Nació
octavos
supresión
DF
enfocar
insos
##ilios
##áneas
Bou
Alre
##egu
espejos
ora
##mil
contradicciones
##ículum
Chico
nublado
cohe
monasterio
empoder
preside
telefono
Restaur
##ógrafo
anomal
entregaron
##SI
##IENTE
Montaña
súb
permitiría
##NE
Buda
Isaac
Cuidado
grises
activista
neo
Atenas
artísticos
##èn
##ars
pant
carnaval
impregn
viuda
prohíbe
investigando
Simon
diur
electrom
logramos
##tí
descartar
travesía
Afgan
celda
conservan
Island
defienden
apreh
cac
##educ
valer
rendimientos
formalmente
promocion
calificaciones
optimista
tratamos
hiciste
Minería
defendió
##kov
adidas
leido
Potosí
Matemáticas
##enciados
invento
vulnerable
##odo
sucesor
Vigil
comandos
1939
Esco
MÁS
##apur
Chic
organizador
##ustro
márgenes
bik
Squ
Journal
analizado
patentes
but
prometió
TP
destitu
##RI
acumular
porn
encontrando
reflejado
repuestos
carecen
aprovechado
##eche
riquezas
##quista
subvención
nacionalismo
controlador
discur
sobrepeso
Quería
bla
##vira
##ipié
iniciación
desprecio
Descon
ausente
enfatizó
abrieron
acel
cría
##ACE
empaque
marcadores
niebla
Especialmente
Resistencia
vacantes
##indust
Duarte
nacionalistas
Común
##ition
defraud
sam
pho
cargador
wid
Vila
enamorada
entregados
Representantes
Ola
sucio
Unidades
Serra
ENTR
##isfer
EDUC
Comandante
Situado
Vivo
referida
convencidos
especifica
consent
inestabilidad
corazon
cineasta
eróticos
sequía
atmosf
pedia
dueña
burbuja
transformado
Islandia
Prove
alimenta
Pil
ordenada
imposibles
construidos
##yd
cabida
1930
jubilados
hinchas
suben
Nig
Mariana
atencion
firmes
abras
juntar
bruto
parecidos
rebelde
NY
##adillo
##92
solicite
##tuosos
Compartir
Adobe
Chav
Ill
##dedora
Función
indicados
infinita
terminada
prestigioso
Contrato
##68
estatutos
Damas
compasión
##ígenas
rotura
adquirió
doctorado
establezca
aéreas
enviada
##lava
Mª
ganadería
forzar
balanza
ferv
Analy
deton
##istado
4x
Reflex
210
##ahu
aud
Spo
##boy
fet
Alber
involucrado
extendió
##toshop
frescura
Philip
dirigen
ponte
##Script
enfermera
##frag
envolv
Retro
elabora
##iday
##XX
March
##aloa
estadía
##ADAS
enfo
irra
TODO
blind
decirles
PVC
coe
cortesía
ham
nerviosa
##irte
animar
##ampo
1940
##TURA
escribí
incorporan
instalados
disputará
Company
apunto
pulsar
encabeza
podia
receptores
Instalación
m²
fantasías
##alizarse
Dam
instala
obtuvieron
MOR
##gador
sureste
invitan
llegaría
gane
vendi
Alp
recreación
anunciaron
Mata
Puesto
Dependiendo
##jol
##IES
Buc
conmemoración
Corrientes
Valparaíso
levantarse
##produc
##cus
news
##ucaristía
plagas
##uidad
confesó
implicaciones
proyecta
##andy
taur
##torrique
##rus
##ZO
inventar
##óngase
##lege
plur
legitimidad
estira
analóg
desempeñar
Democracia
Facil
##ULAR
##osotras
usualmente
descubren
sorprendentes
suspendido
ocultos
inocentes
##kis
FED
definió
congresos
alojar
ratos
detecta
##inda
time
tabletas
serás
##ritis
carencias
ave
##titos
Efectivamente
concentrar
doméstica
dicta
orgasmo
garra
Impl
privilegiada
Integración
male
Pierre
clasifica
traducciones
##IZACIÓN
tomates
apasionante
cotidianas
paleta
Favor
Pueblos
##ecedor
león
mineria
entro
manejan
VP
vibración
autoriza
##din
##ítimos
tirando
UNIVERS
##uñ
##icional
cómodamente
Melilla
instinto
encontrarán
hrs
moderada
##utada
##blecer
atractivas
volando
veterinario
ligeros
coincidencia
OTAN
guapo
##ámp
atravesar
secado
Salida
##erción
##ffet
##iers
prescripción
esca
##edero
AH
paran
Roque
Transparencia
quehacer
SIS
increíblemente
Docente
diversa
belga
MD
##irro
confección
##señor
##rándose
Siento
tesoros
señoras
nata
Rose
jugaba
blanque
##copa
tric
work
##pod
resalta
parados
##ulco
atas
voluntariamente
855
convocó
fenomen
Nutrición
senderos
Brian
vitalidad
IF
##phy
corrió
Contral
fincas
ilíci
1920
vagina
intensas
alternativos
traslada
podés
Ubuntu
terribles
over
matemática
Bolivariana
garantizando
literal
usó
vendió
leves
interrupción
descripciones
Coll
opositor
barbacoa
sugieren
latinoamericano
Círculo
##LES
todavia
Seis
desma
muñecas
coincid
glánd
Antigua
Good
Johan
déj
##mex
generalizada
razonamiento
utilizarlo
Lola
eventualmente
palestinos
helicóptero
zur
Putin
regulador
Elizabeth
revelan
Ingenieros
olvide
Filipinas
Sociedades
descubrimientos
enérg
Note
telefónico
traum
profeta
plástica
levadura
desees
##oran
amables
cenas
##icé
Ofertas
Tren
Str
formular
##reta
bec
probando
Aseg
Euskadi
tratara
Conec
##hue
best
##bell
Islam
motocicleta
##nik
dotación
redactado
##iqué
##tegui
magos
##áñez
Cif
##dex
comunitarios
brig
activado
corporales
madrileña
Project
volvería
##ambo
insultos
##quet
Raquel
hotmail
EA
resume
reconstruir
nes
Ulti
revisiones
ROM
Tob
##ÑOS
##ajuato
##iang
Directorio
##anizado
##Co
andan
##deses
proporcionado
estimula
Pascua
plasma
Ayud
involucra
compran
especias
luchan
rubio
##anish
boleto
católico
llegarán
adornos
##ornos
fruc
Lozano
trag
chinas
Camilo
disolución
tumores
Máquina
idóneo
remota
##árate
Eze
##gazine
produjeron
lubric
imputado
calmar
Psico
sustancial
Alemán
anular
iría
melodía
##drás
Ninguna
referimos
pretensiones
motivado
toalla
##deas
térmico
aero
negl
abdominal
##mín
Veamos
Chel
Rh
TER
cañón
ocupada
dictador
GRAN
Armas
entregan
domésticos
##gor
Iron
mecánicos
##resía
Velasco
Wo
estudian
corn
Mega
##quín
taquilla
##ificadas
complementarias
extor
desconfianza
NOTA
PROC
##ulipas
Cosas
##tta
Consumo
manzanas
litig
##Ch
jul
ilumin
Interés
Silver
deseaba
regulan
guardan
hito
captación
Afganistán
Tla
digas
quiebra
##mana
Entrevista
Chrome
123
Asegú
Diplom
Alrededor
Ceb
agarre
music
Edward
trailer
indignación
mediciones
##jug
Benz
coordinadora
continentes
aceit
partícip
Gala
autorizada
Jugue
##áutica
ampar
tach
oste
sintiendo
##raya
Ningún
láminas
##YO
folcl
##ears
Liver
Montero
transportes
hex
subsidios
Our
ejercen
##ermo
enumer
hil
tenés
envase
Fall
carica
Emma
165
Contemporán
defensiva
automatización
Huawei
##rap
capitulo
Goya
sandalias
Bic
##off
creamos
librerías
sigues
##gadores
Madera
comand
225
ortodo
sucesivamente
##lanes
beneficiar
René
anécdota
registran
llegaban
Kon
lanzamientos
Pie
doloroso
ponencia
castell
DIF
Posee
expuesta
negado
##SM
##ésel
Reunión
Sorp
Cen
Excl
roll
precipitaciones
##avera
ecuación
escolta
inmejorable
Haití
Politécn
completado
saltos
Decoración
##gru
Nova
fallar
llevados
dispuestas
Eche
aguac
espiritualidad
Cancún
recorriendo
marroquí
alimenticios
##vag
##rix
Potter
Gastron
##aven
relajado
bamb
retroceso
Testamento
misteriosa
Documentación
##ground
tristes
pup
Ciudadano
Inn
absorber
Comprom
Wilson
convento
ET
temo
curiosos
sumo
hipoc
1963
codo
Personalmente
inconstitucional
Zen
##cipo
sinti
Especiales
pudiese
windows
informados
Gerencia
Licenciatura
##ingu
Salom
coral
guardado
Geo
Podéis
azucar
Hans
Solamente
pulmones
santuario
Jeff
esquinas
albergar
cenizas
##tasio
significados
embarcación
1°
##idura
##ENTES
##ductor
literarios
LCD
referidos
batir
flecha
teclas
##IMA
posicionar
Opera
rodillos
Cambiemos
##roco
Night
desplazar
contenedor
generada
MAC
saturación
alcaldía
ofrecieron
Normas
retirarse
tacón
insin
cordial
##xtotal
Molinos
##uró
ironía
USU
Levante
##rima
equita
secuela
desvan
retiró
grabados
145
Ann
Colorado
Lula
consagr
asilo
##achi
Soledad
intercambios
instrumental
MEJ
Shop
##hr
alcantar
ambicioso
Hem
véase
legend
fallecidos
##ISMO
promotores
pasarela
contemporáneos
Palacios
esferas
Manolo
destin
invernadero
cuestionar
pretender
ordenación
LP
Cristal
lineamientos
not
##trospec
Tesoro
necesiten
##tup
determinan
progresivamente
650
Departamental
Vanguardia
##itros
Ribera
intestinal
##imir
explicando
Sinaloa
míos
setiembre
pred
embalaje
tapar
aportado
Milag
biología
lotes
pronos
payas
calificar
vivieron
note
895
criticado
prohibida
Whatsapp
veras
##activo
sustento
cuñ
evidentes
gruesa
cuaderno
tramitar
amorosa
carc
domina
latinoamericana
refriger
chapa
was
##tidor
inclinación
estabas
adecuación
obtenga
aceleración
iner
desempeña
Llu
gestores
dominación
coincidir
Aérea
Humano
psi
quedara
privilegiado
fabricada
pague
cepillo
señorita
subidas
##iy
acabamos
reconocimientos
Orange
incorporando
llevaría
##ssss
cupones
Requisitos
Ney
##ajust
##foro
Adi
##house
aren
precoz
Escribir
##itoria
entabl
Bank
Plas
publicitario
censo
ste
ia
guerrill
decepción
##atemal
legu
secuencias
Picas
benéf
dri
costura
roble
intervin
Meta
proyectar
continuado
apostó
enteros
lob
predetermin
Let
redujo
Palestina
docena
##cribir
usaba
##quetes
adje
pasajero
Caixa
Términos
Cooperativa
extremas
brev
enseñan
116
requerimiento
conciliación
enferma
##alta
íntegramente
morf
emitida
##íns
pasaban
Perfil
bailes
deport
Cuándo
##estern
##mero
lata
ubicar
vigilar
##volta
abol
actas
Organizaciones
parás
tallas
contorno
Aceite
##ipiélago
##recht
revolucionarios
preservación
libera
descont
fractura
provee
estableciendo
yu
Paral
potestad
pica
quitado
comens
##dadora
Baño
Médicos
##gunas
reembolso
##ocatoria
Pix
bate
desinfec
balas
convocatorias
publicitaria
cardenal
subvenci
Sinopsis
Jurado
didáctica
porcentajes
incomod
webcam
##roga
Maxim
ligada
conectarse
turco
colapso
Fisc
##anova
brevedad
vecinas
intente
hacerlas
YO
mezclas
otorgó
##uru
aro
Avel
mang
##hem
dominicano
##allos
cerrando
Miller
polo
COS
cejas
asom
Pareja
solicitante
lingüística
intestino
protegidas
deliciosos
preguntaba
remitir
Escocia
solicitando
campana
afortunadamente
estratégicas
magnesio
Nissan
cirujano
perjudic
holan
abandona
Pet
nal
aprendí
Finlandia
##tológica
Obispo
catalo
superioridad
ovejas
##ocalipsis
##UER
escalas
esplén
cannabis
inversa
intentaron
Guanajuato
cualidad
semen
umbral
izquierdas
aerolíneas
excesos
##ódromo
debilidades
Cualquiera
esperemos
armadas
recaudar
celeste
desol
animada
guerrilla
intervienen
observan
Determin
Abre
109
refrigeración
Brook
camping
remover
##camos
Rot
biblia
hablas
Young
Bajos
equivalentes
progresivo
eternidad
pescados
paralela
1958
conservadores
vanguar
Guev
##lumb
machos
válvula
##cóp
condado
pedí
pondremos
valenciano
MM
escondido
festejos
tio
piedad
##ércitos
Aula
Bin
ponernos
simpatía
##etafe
licenciado
Venezol
##agan
dramática
occidente
topo
CES
Ilum
##uelven
dividida
tecla
prótesis
inco
##GAR
órbita
tambi
mantuvieron
liberado
Protocolo
verbo
lima
procesado
cambiaron
escomb
maci
Llevo
sumaron
##óricamente
trí
##itora
antibióticos
Minas
SUS
inquil
Concil
##nova
##ografías
caminata
hembras
Valdés
vencido
##ambiente
bizcocho
parientes
representando
##berry
colas
Snap
##igmas
Pent
Iz
decirme
subsidio
cláusulas
atrapar
dispens
gobernadores
tibur
exportar
##tinas
Mejora
Manzan
Palencia
##gir
tenor
quedarme
##liga
encantadora
Diam
firmemente
barba
arist
remonta
carrito
infracciones
Malas
indicaron
mediática
póliza
conformación
Lleva
candidaturas
##ARIOS
##pó
Compostela
##ecencia
inigual
Ponti
depres
Buscamos
leen
seguían
bull
divxtotal
BOE
cosmo
Corre
alcanzaron
##ucci
llorando
contienda
extingu
cim
##reí
genere
dejara
comido
casada
suponía
1961
vainilla
alumnas
perdonar
opta
prestigiosa
pensada
Ear
Añadir
susceptibles
Inés
enfoques
precisos
##VER
Vest
Futbol
Experim
reinado
##ordenadas
Barto
enfad
toallas
extermin
masaj
Ubicado
regener
##vir
Piel
Hero
##sk
Tijuana
promocionales
causada
Malv
piña
##mad
racismo
##manuel
aparecía
##ALA
fiscalía
Liverpool
exquisita
Mapa
Cuero
anch
chatear
apasionado
conformar
##ichi
décima
dudar
programada
Ocup
glaci
sirv
##ífice
##curo
retira
acreditar
Poner
cardiovascular
Esperemos
aseveró
firmaron
artesanales
mob
Tamaulipas
desnivel
kar
##urmet
##otón
prisioneros
Mara
resultaba
Vestido
limpios
prosa
Ustedes
solicitados
##iÃ³n
celebrando
##arning
multinacionales
echado
autoría
discreto
promoviendo
transversal
generador
Valverde
adaptada
folla
apelación
trofeo
confrontación
acompañando
##túan
AND
##ferentes
##ÉS
manifiestan
one
hondure
sujeción
preocupados
empo
solicitada
dedicamos
haciéndolo
Juntos
##pados
arreba
narrador
quisieron
WEB
hacienda
##lines
senos
tango
elija
dimin
##iiii
##tier
ganarse
##asen
introdujo
metálicos
##fran
nór
##bando
##lamos
furgon
##meral
tag
lent
pozos
faceta
adaptan
Monitor
Ariz
fero
requeridos
electrónicas
enfocada
imparte
##uevo
Hablar
bachillerato
rebote
desal
adren
facilitando
agilidad
reservados
##iseo
evang
consecutiva
complementaria
##ometrajes
pulver
##álido
vocales
finalistas
Mano
118
filo
disparó
implican
tóxicos
encomend
cuartel
Stone
cosmética
hostelería
valencia
arrancó
Generación
gestiona
autenticidad
seleccionada
BAS
##tense
penitenci
von
plasmar
Veo
defenderse
preparadas
Competencia
temores
representados
Francés
atrever
Complejo
imprev
alab
##pel
alejar
Tomo
##asy
##icial
africano
caravana
fragmento
chasis
resulten
alud
tirado
##eeee
Michelle
Diccionario
##quív
profesiones
refuerza
ensaladas
cicatriz
entes
JavaScript
apri
conducen
cc
atacante
depre
sometida
mayoritariamente
emblemáticos
demandante
Mantener
cruza
optado
lineas
Manejo
block
consolidado
aceptada
cucharadas
asombro
##cillo
tratará
mixta
##ENTOS
Guevara
panorámica
empleador
Bah
Artic
Barrios
indiferencia
sacram
Procesos
ocasionar
ideológica
Gesti
##CC
resguard
protagonizado
artesanía
hash
aclam
niñ
Adriana
infarto
Barranquilla
Campeones
suizo
##ciencia
encuestados
mamada
##tiempo
Porto
acertado
rebotes
divertirse
Davis
disfrutes
estimaciones
Programación
ciber
indiscutible
iré
asfix
##érf
disputó
separada
Duración
##ople
punk
Wii
111
gradual
desenlace
Continue
litoral
goleador
debiera
imponente
GA
ascender
##ultural
acné
noreste
Pak
Tib
formativo
grand
follada
##ping
Sarmiento
milen
##BER
Escritura
protectora
pronunciado
suro
Quinta
##sopor
##Ar
táctica
ofrecerte
##AMA
Continuar
húm
seremos
Lion
heredero
experimenta
cuchara
regímenes
Clásico
himno
ts
Poesía
institutos
vicio
##ogía
lagos
señalados
nec
sumarse
Lucha
uvas
enven
Constru
fraudul
Traducción
poderosas
fuere
novena
Week
colocando
conocieron
pretensión
antid
atrapado
cruces
##rbara
pagó
##isex
apostando
agujas
vampiros
centenares
hermandad
##ро
ML
investigado
incorporados
##bado
Principal
gorda
higién
Server
permaneció
psicológicos
teñ
Capacitación
FAC
colaboraciones
hacerles
domicil
Kal
cosméticos
inscrito
Carrillo
interlocu
Anthony
Podrá
producidas
oficios
etiquetado
influen
##lices
delegaciones
##ómodo
réplica
Bases
priori
impotencia
##MAS
retrans
gozo
Elche
##ajillas
mares
seleccione
##amilitar
##UAL
retratos
partidarios
prohibir
##TIN
GL
albergue
##uas
usas
ilusion
led
autonómico
versatilidad
Lamb
##acon
Apos
Consulte
##ston
admirar
Entidades
vergon
Hungría
nacionalista
silueta
incidencias
amigable
DOMIN
Indonesia
pino
historiadores
resurrección
reclut
##acientes
espin
holandés
Espar
Alojamiento
ginec
##ugural
low
imitar
guerrero
debiendo
carbon
Iba
álbumes
##quias
añaden
Antic
##itieron
##cera
UA
Jennifer
Mot
paladar
Poz
felicitaciones
colaborado
rutinas
##sia
escud
sacrific
sacaron
lienzo
homosexual
erótico
sonreír
rectang
soles
dictado
##FO
Televis
probarlo
pedazos
short
maldad
porcel
tremendamente
##ígono
verso
Locales
profec
llenado
##fun
pizarra
simpatiz
retar
eclesi
desarrollaron
##atis
cambiará
Houston
lácteos
Sav
##rade
aplicadas
subtit
reafirm
Pira
##ayas
Persona
aparezcan
Patricio
##ILLA
asumido
Limpieza
cut
dilu
mora
alfabe
incluía
Cará
medicinas
arraig
##antería
nominal
decides
##quiá
mutuamente
##urn
decan
Repro
equilibrado
movilizaciones
gravemente
Humberto
Espa
shows
utilizaron
##éndoles
ecolog
unidas
##lock
tendríamos
Linares
##HS
judía
distribuye
velar
montes
golpear
Tránsito
Vídeo
##roides
##TRUC
sostenibles
abrazar
##ank
hipotecas
Musical
gracioso
Hecho
apareciendo
almendras
Ther
sufra
CCO
recuerde
levemente
intrig
MEN
Belleza
Cis
despertó
transgén
promotor
Antrop
pastores
indirectamente
contesta
clip
pionero
finos
intérpretes
cálida
refiri
##quipa
inse
Envío
Arenas
fósiles
ermita
prór
##ucir
evolucionado
revestimiento
relacionan
puntualizó
formaron
##ocada
firmada
Aprob
Ville
orgullosa
beneficioso
rigen
##izadores
eri
MT
1948
##trán
Mina
centenario
trig
##rital
engran
##abal
delanteros
cúb
Sovi
recortar
demostra
Wolf
dual
corrida
pulsera
jovencita
##enciación
oso
mecánicas
kW
ingresa
Tags
VIP
mejoría
TRABA
Bello
remodelación
moldes
radicalmente
cuidada
Hamil
##igne
proporcionando
##69
carnet
hubiesen
##rust
cilindros
##yen
Bienvenidos
##untain
femeninos
Verónica
TEL
malware
hd
seleccionadas
fea
Hon
provisión
check
##ágeno
Agentes
reit
YA
Tribunales
fichaje
entretenida
reconciliación
cabaña
##vit
configuraciones
creyendo
canasta
##ments
insopor
Charlie
##lina
Sed
Calvo
5000
Jordan
delicia
participará
tutoriales
pill
This
Acto
##idal
predecir
Kin
aprovechan
contractual
comunismo
regulaciones
inalámbrica
metálicas
explora
hun
propos
##talo
continúe
Varias
pondrán
fuesen
inusual
##tru
zinc
deno
Ans
focos
##MINIS
corruptos
fastid
Ord
will
radios
##factos
parche
text
##TACIÓN
orientados
##vard
Único
lag
##tox
encantada
Pereira
##yes
estatura
tubería
comporta
##hol
sismo
IL
incómodo
llevarla
Sú
cruceros
Eugenia
COMO
enfrentará
kirchner
##itorios
##illero
chiste
retribu
distanci
bb
abarc
intuición
##rell
marinas
devuelve
vendría
consuelo
##ingüe
Biología
##yuge
Bry
REAL
##iéndole
SAP
hostil
guerreros
##ark
melodías
interese
legendario
campan
liderar
dirigía
Lyn
vacíos
preguntando
produzcan
SIG
Oportun
denominados
Xavier
Fro
hicieran
adaptados
Desn
procesados
Cry
pulmón
##ocial
##dialmente
Clim
##iad
descif
Municipales
indef
veteranos
procesal
impulsada
Anual
1200
nula
Superman
##yright
pasivos
entramos
##87
Titular
tech
transmiten
##IDOS
##ÑA
indirecta
mediático
llevara
tropicales
inolvidables
##xos
##dujeron
semifinal
area
antepasados
##tropolitano
amabilidad
severa
Water
asco
pasarán
garantice
router
##400
utensilios
armadura
##daz
##ampe
infiel
Expe
desplazarse
nev
consejeros
extrañar
advertido
acabaron
##enan
carpetas
duerme
##atación
comisario
identificada
bou
Portada
excusas
Instalaciones
jubil
Premier
basándose
Complem
irme
Nas
Contabilidad
impresa
Ponemos
volverán
valientes
béisbol
##KA
##anual
defendiendo
lenguajes
compartirlo
sucia
##aque
escuchan
opinion
determine
extendida
ESPE
triunfar
##Book
Original
interesar
salio
sentó
Misiones
Alas
oct
fuegos
despacio
conformada
misiles
consultor
Lewis
##urgia
Ponce
fortalezas
Esther
##senger
##adeo
salte
##late
estrem
ocupando
utilicen
secundarias
##CAR
Him
arquitectónico
Ku
desventaja
recesión
catástrofe
Allen
banquillo
funcionaba
abrirse
nazi
remuner
##tenas
Enfermedades
demócratas
self
Kate
##turista
microorgan
Commun
bendiciones
frágil
##ái
Shin
entregada
piro
##ístas
escote
##activa
membrana
Marie
##giles
##endio
##elaciones
desor
sucursal
feminismo
cupón
comentaba
Atlas
dela
manto
Regres
vec
ofrezca
aspiración
gratific
hablaremos
metáfora
seguidas
reinici
incompr
nido
##jimo
Tron
Llegamos
##quén
perlas
NACIONAL
remuneración
sun
Miembro
tarot
equipadas
increible
SR
##oluca
Edition
confun
##laba
padr
intentamos
favorecen
##onedas
orientadas
amplía
incentivar
ISS
naturalidad
Ava
oscil
CONTRA
Aprendizaje
pern
implementado
inician
metab
##antías
ventilador
Ceuta
dinamismo
Aniversario
Auxiliar
bacteri
Población
MAT
##culación
escuadra
sensa
nazis
##rice
envio
nieto
cesta
Pino
127
restable
Cien
señalaron
suministrar
REP
coyuntura
##fique
Dir
unán
extraordinarios
Porta
gasta
##tagonia
mezclado
intervalos
papele
aislados
ARTÍC
Fondos
contención
volverse
##ueros
##cados
Archivos
murm
invitada
limitadas
dijera
acol
deducir
ataca
##tuv
##iable
ladrón
salta
##ost
Equ
Planes
aleja
Pine
potasio
escuche
insól
##vey
subieron
ofrecía
calm
Piñera
Singapur
extrad
MÉXICO
fusion
instin
genético
Toronto
emergente
##recer
##tems
Relación
Spain
preocupan
entienda
abogada
Documento
SEP
paramilitar
participen
ando
centrarse
radiante
550
regala
Abs
vibraciones
##trick
Clausura
desprend
ésto
##estral
sensibilización
##eada
factur
nueces
##esh
College
Alzheimer
Particular
Equip
orienta
sinfín
Chac
aplausos
Fly
##ICIÓN
Centenario
TRANS
incans
Tas
factible
Animal
realistas
militante
subraya
solemos
femeninas
ris
festivo
Nep
##tete
##riller
omisión
HER
sabíamos
cham
viajando
milf
CAT
##rinas
##omio
##onera
picado
quinc
subyac
##inariamente
Health
##rity
regularidad
Electrónico
casó
currículum
arrastra
ajustable
degradación
deca
reunirá
planeado
Vod
Gráfico
##ни
##erne
cazadores
avisar
desent
asistencial
diplomático
Elementos
##93
Escu
recopila
##orde
Instrucción
reelección
destruido
prepararse
Carlo
entendía
##eum
inaugural
federación
##TON
mineras
innovar
lógicamente
corporativos
bó
forzada
soltero
vision
arbitraje
##nel
biológicos
Prac
desmante
##estra
contrapar
##ер
##urbios
partió
Ryan
big
protegen
transparentes
desnudos
acumulada
Nin
picos
##ampista
##EI
deberemos
envuelto
CCOO
anhel
medicación
reedi
cristianas
pronunció
prolongado
Parra
éb
razonables
ignorar
peluquería
Evita
ligeras
Road
delicias
suprimir
calidez
Soluciones
reducidos
bió
##asticidad
cantos
Ciertamente
Ferre
pastoral
monumental
coordenadas
Allende
##entaciones
tomaba
enfriar
##BB
irrump
##nete
Médica
nicara
anónima
pode
enton
##hy
entenderse
coge
Coronel
##TIVOS
precauciones
situadas
dirigencia
Eth
Recep
cinematográfico
Obten
##FF
Garan
bajista
Definición
Contreras
andaluza
##kas
explíci
digestivo
ayudarlo
##eciera
##eando
##uralmente
##udió
monos
Andy
forzado
ceg
Electro
descubrieron
Alexis
frías
rinde
vampiro
##garia
hallado
hortalizas
Estable
##máticos
Ramb
textiles
arcos
##IDE
Infin
circula
reapar
coincidiendo
##isferio
altavoces
##acimientos
Arn
financiado
aduan
hábil
cualesquiera
capacitado
fertilidad
gratitud
##dle
##ulina
fog
Cena
auxilio
Emergencias
experimentación
Cauca
digestión
Pier
aplique
convocada
Aurora
encabezada
analítica
casta
confirman
tatuaje
Ebro
ingresado
117
##chu
dolorosa
correctas
barril
##No
Maravil
confiado
cuevas
##opatía
cuidando
insertar
enteras
centavos
escuchaba
Linked
Cruc
Acá
Conc
educadores
salmón
caliza
relevo
sexualmente
Institute
numer
Batal
sacrificios
satisfactoria
Rector
levante
cucharada
redund
Morelia
acordar
RESOLU
##quila
camuf
Uber
Lleida
ángulos
##análisis
empuje
estrib
paño
Interpre
reciban
expulsado
Tum
##doncia
Sound
##interrump
encargan
bancarios
analizan
##uación
Amplio
##uzzi
permanecerá
arbitr
##tecer
reunidos
tardó
Puntos
frentes
compartidos
universitarias
gastro
informan
Moham
##dré
Eugenio
Ára
amada
##caya
sufrag
clos
legislativas
6433
Dele
Io
##icciones
Zapata
contribuyendo
Totalmente
inesperada
##toriedad
festividad
non
Audiovis
acertada
Serena
pongas
##vet
##ñe
anticoncep
erradicar
insatis
SAT
tocan
##iev
Distribución
tierna
andal
literarias
agresiva
adquieren
##identes
desob
##tegro
patios
hadas
Sesión
##rara
merced
puertorrique
Harris
bonaerense
seren
Bruce
exponen
Nou
Sitios
tomé
##IZA
repito
imped
pida
reposar
Rosas
triángulo
amenaz
Dura
Hacemos
Movilidad
Libia
mermel
Colectivo
zapato
Baby
descender
Temas
##ockey
desarrollen
hosting
##avy
fé
clor
divisa
replante
telenov
Lagos
medicinales
matrimonios
##Po
Norteamérica
hallan
restablecer
Aznar
algoritmo
Space
instaló
Brin
Apartamento
pretexto
Off
##iriendo
paraguay
impresoras
Riesgo
mia
dona
##iá
energéticos
##mascar
##BE
ani
270
Quiere
Irene
magistral
Market
##egación
adición
boom
Hamilton
hormona
##árra
entregará
##ÍT
##ientas
machista
##deste
estricta
tuer
Quil
Maqu
opcion
Arco
sentados
esperados
sobrino
Básica
##guin
Liz
reformar
Acab
olvidemos
freel
inval
PRODUC
##arcal
escan
##onista
Golden
Búsque
6º
manifestaron
View
PAC
Módulo
muertas
Interamericana
valles
Menor
Sandal
Javi
##ADE
Getafe
if
font
mandado
patrulla
vehic
masacre
Gaza
TD
psicólogos
##uba
##riam
##ambul
GRACIAS
Distancia
##ollos
##contin
##ashion
sabrá
##versible
preferidos
Quir
Ochoa
##nistía
sonrisas
##gable
Debo
Apro
##garo
confirmaron
PERSON
psicos
chan
coser
globos
260
llamamiento
##comun
Rueda
##ELO
pretemporada
Elo
##terape
decorativos
parlamento
Cambridge
ampliado
##olun
resina
Defini
afectó
contratados
Fui
##udita
traspaso
ayudamos
##ítez
Básicamente
##ueltas
Agencias
huecos
pé
PROP
sitúan
electores
cito
miti
relacionarse
Monta
MIL
cónyuge
TLC
guatemal
sinceridad
##rosas
realizaba
##glish
Adultos
enamorar
busquen
porciones
llanto
respondido
Columb
publicando
Serán
resbal
Lectura
proliferación
Carácter
##indicación
##damos
resolvió
Chu
pseudo
justos
Pintura
implantes
jurada
##6n
##etano
guiada
Clima
##issa
progresión
Espinosa
kms
mansión
Firefox
API
afiliación
emblemático
dramático
VAN
Tenga
acompañadas
recibirás
##gente
##uradas
ininterrump
jugadas
presidido
engend
importaba
infinitas
Cív
acome
Dil
internacionalmente
patrimon
avatar
individualmente
legislativa
720
evidenci
##lutense
transcurre
##tecnia
asiste
performance
quirúrgica
Christop
envol
trampas
diamantes
limitados
Catálogo
doctores
##afone
Acabo
estampados
brevemente
cós
##cribe
combustión
Contenidos
Cesar
##sin
PROF
uniformes
Benítez
agotado
apod
Prácticas
abismo
imitación
chaval
preguntarle
reglamentos
aminoácidos
iniciada
contados
conejo
##demont
JO
apues
requi
Telef
practican
arbitrar
##vieja
reorg
cercanías
balne
volveremos
##etan
Pacheco
ami
concedió
colgado
recomendó
##iología
repleto
XP
cazar
blue
##ities
portadas
honesto
cremos
reconozco
mutua
comunicó
póst
arcilla
eroticos
Entidad
carcasa
marea
Territorio
##001
dad
PI
incapaces
promovido
guion
afluencia
interdiscipl
tribus
franquicias
Otoño
presidida
##idón
DR
##atlán
sillón
##indle
Financiero
concord
intervalo
párrafos
Vicepresidente
reestructuración
mediterránea
derrotó
suroeste
Quisiera
raya
SOBRE
ejércitos
constatar
Problemas
promueven
caucho
##ONS
boxeo
TOR
##ESO
Kra
reab
estaf
Amo
simultánea
Jimmy
moment
circuns
herederos
Sao
magnético
Ade
empiezo
continuas
Manga
##oney
Entrega
##ifican
##xima
magna
reperc
Alh
##nic
edificaciones
planeación
##urismo
bilateral
estereotipos
Pref
##ificando
Adán
##uevan
resolv
Sporting
##tuarios
##ет
supremo
plugin
Fase
Estructura
tun
evolucionar
tobillo
geo
Infraestructura
##ué
anunciada
have
indispensables
Principado
precur
nacieron
Mejía
Selecciona
##ugeot
##rosis
Clás
##lora
##terios
comprometió
##cino
LOP
##ociones
ayudante
Método
##horia
##ayaquil
##lista
acredita
Sexual
llevadas
chistes
##desc
##ialis
cansada
paras
secador
1955
##uster
propietaria
Constituyente
boliviano
alarmas
1957
Chip
##ajos
mosa
Bec
Sonia
espaciales
edific
lanzada
surgieron
Farmacia
actuado
Tigre
eligen
enamorados
hervir
Pek
Henares
avena
adquiriendo
subrayado
ósea
apagado
Sucre
Jen
##gonés
floral
Económicas
ánimos
raros
proceden
producirá
Mand
grup
##EMP
disponga
bailando
navegadores
impuesta
##gets
caderas
cierran
Borja
sembrar
Puigdemont
##gna
rentables
africanos
alertas
duradera
cres
vóm
Agrupación
##eal
Iberia
comedi
EXP
##tecnología
##wski
trading
Cach
peatonal
##ming
recuento
##ension
##ernet
Malvinas
abandonados
archiv
despidos
paradój
open
##stata
cuestionario
##DEN
Pass
pit
gamb
Formato
##odes
discern
lava
Hermano
explosivos
sangri
debieron
##chain
estuviese
inces
sanguíneo
precisar
##inch
expresarse
automotriz
salí
invitaciones
dejaría
malague
austeridad
puño
vislumb
enmarca
consultado
veneno
diseñadora
intentarlo
vives
herb
##amiliar
setas
Cable
contenidas
Ejecutiva
cápsulas
residuales
sonrió
planteamientos
SEGUR
##yle
feb
procedió
##ógenos
##igno
Andaluz
disminuyendo
aprendizajes
##úd
##ocidad
criticó
expositores
colina
orientales
##ecesor
cuarzo
atendidos
reciclado
entraba
insom
honorarios
apuntes
escalof
intríns
Jefa
Razón
usarla
Soviética
##obiliarios
Impacto
##ientemente
Unida
##doso
Perfecto
matrimonial
Pardo
VIDEO
rebaja
colectivas
egresados
##ihad
habitacion
desemboc
##anás
ofensivo
DM
mitología
##elamente
Xiaomi
agudo
##entenario
Arequipa
oponente
Medic
especulación
escuché
##EV
##xe
ropas
recogidas
Ár
##rial
estrechamente
construyen
sirvan
##SD
explicamos
##tadora
##ation
gimnasia
pH
contador
terminará
##ícolas
Patagonia
discrep
inmovil
Concre
faldas
##ógn
terapéutico
obediencia
escribía
preventivo
hidrocarburos
##GAN
afectación
asesinar
corrig
huerto
about
rif
Correspon
Vial
simpático
preguntarse
vener
difundido
residencias
borrador
utop
lanzaron
yer
andaba
agob
hongo
##calientes
nudo
GENERAL
Inversiones
iT
ucran
Chaco
suscriptores
valiosos
##dillas
Veg
subterrán
Mamá
Incor
##ierras
peregrinos
obligan
##bate
Robles
entretener
fluc
consiga
Venus
Cron
prójimo
Tipos
##cc
alla
MP3
1080
evitarlo
Abad
cubo
Nog
vestimenta
Canon
irregulares
tert
Little
esperma
Kg
##iscopal
impactante
nut
##trina
cordero
bende
obligar
##tula
apretar
hob
bruja
##kra
Doug
oposiciones
Aus
haciéndose
manta
Entiendo
picante
zan
Oliva
##campe
##ells
Gara
barcel
revoc
dí
Machado
despar
prestados
cupo
militancia
abejas
London
discrimina
##calo
Creador
##letic
Moon
##tip
##actividad
Parroquia
automáticos
Alvarado
Toluca
F1
1956
recuperarse
##éditos
arresto
Bit
inmersión
Liberación
empap
cote
campeonatos
##ose
Santi
consejera
acreditado
secuelas
espere
solicitan
Spider
espadas
Paraná
##ancial
maximizar
gremios
ocurridos
Alfa
secar
##uld
##ueroa
##às
IBM
##ricos
Visual
democráticos
podré
##zona
recibí
reposición
enfrentó
golp
campanas
Logro
atún
judi
llenan
suelto
Viña
concebido
Palermo
huérf
concurrencia
escombros
intermit
invest
transmitido
explicaron
##yecto
ampliando
##fel
testamento
normativo
##idencia
medico
derrotado
arc
jp
multim
palmas
concert
sco
Configuración
vicepresidenta
Urbanismo
Velázquez
consistía
duran
neuronas
fritas
Grey
##CU
píld
gastronómico
Cues
sabios
quitarle
deseados
Camacho
lechu
Meteor
##ambres
##química
barn
yogur
Picasso
Kaz
evoc
Harvard
intensamente
Guill
inmediatos
graduación
114
Gem
estelar
##kh
##ludo
FBI
aviación
parab
Records
BARC
##damente
##iertan
##gad
asisten
##clopedia
conector
##́a
rendición
temático
santander
quemaduras
colágeno
observamos
arrendamiento
Cuesta
coordinado
bajan
Reparación
caduci
SK
entendiendo
##tografía
fide
##Al
utilizará
Dinero
Prec
decidida
admiten
contaron
Orientación
castigar
Horizon
##dd
durmiendo
Prieto
Complutense
Sales
Lord
dificulta
arzobispo
cruda
sospechas
osea
##quismo
útero
apreciación
invención
ilícito
Cris
cafés
traerá
Ibérica
manager
lobos
##72
voltaje
Mire
Clases
##atico
Periódico
abr
cantau
escand
empleando
comunal
resultando
Cierto
vacunación
Bosch
sexos
primos
Definitivamente
Research
Prue
aumentaron
113
afecte
significó
atletismo
##ures
valía
obstac
fech
alejarse
decadencia
Analytics
reflejos
##ÉN
eras
insistir
endo
##kan
Guia
estadios
impresos
patrocinio
Cuad
autonómica
dale
vecin
running
##ulitis
English
URSS
Tito
vehicular
Clarín
maestras
consens
repiten
Sabadell
empuj
llegas
Mail
funcionó
Salvo
Valde
agl
Over
víspera
cromos
Nay
rusas
alba
reading
Especialista
moviendo
comesti
mantengan
Anaya
induci
978
Última
controlados
vencedor
Lour
aislada
importan
complicados
##laces
sueco
definidas
llamarse
##íbulo
depositar
carisma
Habitaciones
huele
pájaro
combinados
Paredes
Flex
identifican
asumiendo
Aprovecha
East
aseguraron
bienvenido
dramatur
##etto
complementarios
##allen
elite
señalización
demócrata
elasticidad
##ibra
preferible
contrarrestar
presume
##ITAL
universales
Decor
esclavo
##verg
confesión
##ficamente
ARTÍCULO
aterri
singles
edu
##istan
##ful
libra
escasas
SON
medioambientales
sustituido
adopta
lisa
generoso
asid
##xia
leemos
artill
votado
lesionados
##vina
noveno
poliéster
VIS
Inspección
susto
Hiper
conde
Anterior
secretaría
Urbana
ligas
atrevido
caris
teme
tratada
involun
##xit
##79
verme
creadora
mítica
##ADORES
otorgan
pregunte
Johnny
sustituto
##alizaron
Sebastian
canchas
Rodrig
aprendió
principiantes
SOCI
dialogar
feroz
fotovolta
cositas
dop
Hear
filtración
Clasificación
##kg
diligencia
curiosamente
alquileres
Jersey
papás
calabaza
Neymar
instru
revolu
cumplía
##izará
1900
adquirida
Industriales
website
adaptador
hidrógeno
trágico
sul
cancion
##tering
incógn
novias
escriba
impulsos
dirán
criptomonedas
desaparecen
azule
Perón
remarcó
echó
cancer
android
Drive
diésel
Carol
##ideportivo
power
Minister
##emen
adversos
transmis
causante
Figueroa
destreza
hispana
Latin
enviará
##ibol
##idan
VEN
solvencia
helados
##etes
Ques
Consorcio
vaginal
Tej
significaba
Líder
Leopol
brindando
cascada
convenciones
contenga
Ubicación
entrará
baje
tornillos
diócesis
barriles
merid
rog
key
compraventa
discreción
Ik
Cero
LOC
paraje
rít
##entaba
asistencias
IMPOR
##ecito
imperialismo
programadas
distintivo
##ámina
saldrán
auditor
##ionaje
Vari
alineación
deshacerse
dejarla
ocurría
##cieron
jaula
##abé
propongo
##edal
##atlón
pasiva
subt
deban
Amistad
DIA
estadísticos
##FL
minús
Model
Trist
festejo
facilitado
apego
invierte
aser
Lop
negación
Expres
Humanidades
beneficiario
exitosos
Terapia
Ingres
Aven
descarta
##allón
reivin
bromas
actuó
anf
desembar
Administrativa
taxis
Freud
renovada
duradero
##ísticamente
recopilar
Sagrada
tuyos
calderas
masculinos
##tives
cajones
ratones
solemne
avenidas
inclin
Bárbara
desarrolle
Piensa
Chelsea
prolongada
Chur
Adj
ratas
trituracion
Duc
arroj
##nacionales
revit
contribuyente
##lov
estigma
monarca
Martha
##tify
ADMINIS
parecidas
seque
##ipse
contables
ax
##timamente
implantar
Empren
celebramos
##An
Discapacidad
algas
ultras
peatones
Encuentre
bue
Table
formativas
voluntariado
reencuent
Autónomas
propuestos
atu
Enf
onc
Historias
Quiro
metropolitana
trabaje
complementa
respondiendo
precisas
negativamente
varices
Cita
##EMOS
Rally
evacuación
##RC
##ei
##isima
tutores
##rendimiento
ADV
##63
##verso
cognitivo
intolerancia
diploma
economistas
atribuciones
Sosa
##flores
##pping
Sangre
asignar
teología
##GS
comprarlo
sospechosos
##ль
capturado
tíos
soñado
Tráfico
ayudaron
reportar
##ipuz
originario
pulmonar
fitness
Resort
veloz
aprobadas
locu
Tecnológica
Anderson
##hel
Habitación
refería
Lorena
mariposa
##thur
Aguascalientes
acústica
alambre
PY
simbólica
sinerg
TVE
convocados
sá
habilitar
##mundo
CNN
Haciendo
talón
prórroga
pagados
##umbres
medianoche
impartido
##iciado
##acy
Queen
redis
Eucaristía
dispara
##contra
##cono
Fuimos
espor
##ífero
USUARIO
citadas
burs
revoluciones
Duero
desgraciadamente
yeso
##CRIP
desayunar
cruzada
profesionalmente
sagrada
PNV
tibia
representativos
argentinas
##ficia
confund
trataron
emancip
conno
Campeón
Gian
enterado
separan
lindos
##dro
corrido
vejez
matemático
aleda
brujas
##kt
##abamba
Abogado
amargo
##tarra
##gido
##tors
Casado
Solidaridad
solista
Intendente
Pregunta
semáf
impidió
atravesando
##ump
Conservación
Pekín
electri
comerciante
flamen
esteril
Brigada
interrumpir
capricho
day
prevalencia
ARTIC
arriesgar
transformó
##TIF
técnicamente
##gnóstico
limite
lé
##uelen
tejado
##leros
3ª
Service
Buscando
endeudamiento
##ecimientos
abordaje
##01
##iguroso
Técnicos
vacacional
legítima
tazas
incorporó
acuerda
Valdi
terrestres
ecuatoriano
dañado
Consiste
numeral
dorados
get
cardiovasculares
encaja
Carrasco
##hattan
Estrategias
intentará
pionera
ana
adrenalina
DH
repartidos
PAL
vacías
##úes
jueza
##ecio
2030
Realizamos
##rint
aque
##med
Monts
arreb
Food
celdas
Yama
polémico
##vor
chancadora
##tré
Animales
Fos
motiva
vascos
comenzarán
##jugador
alfombras
Princesa
##guilas
parcelas
organizando
Blu
size
Morgan
yacimiento
capitan
##tismos
intencional
Compa
inaugura
pagas
##gran
aÃ±
Font
inventado
desigualdades
prólogo
##OSA
##alao
##kinson
comprobación
Contro
faltó
diet
solventar
Preguntas
microorganismos
perra
acrí
boy
epic
Dá
anonima
##toso
muchísima
Visión
living
Haya
caldera
Puertas
sonriendo
Toni
track
peti
iii
##PM
Osorio
Thom
lumb
descol
motivaciones
demandado
comparti
Cuántas
trasplante
mandan
##endidas
controlan
bautiz
##uria
##ienses
generalizado
TQ
presumir
##sch
##ны
escuchamos
##izaba
concern
##iley
##ELONA
Lig
Masaje
buses
empeor
Tuvimos
riguroso
Berm
REF
saludar
esmalte
compañia
perfeccion
triang
aterrizaje
contraseñas
cerebrales
llamaban
dejaban
Scar
##vertida
##gy
##bata
inmune
alargar
vestida
congreg
SISTE
plasm
MERC
esbo
ralent
Despues
##ábrica
goce
##critas
Geografía
Conforme
Referencia
tenes
##gam
Murillo
Under
State
##ímos
ame
Comenzó
casting
laberinto
empan
toxinas
válvulas
Benjamín
JOS
encontrarnos
ring
especificar
1953
Cuevas
inexplic
##lyn
##idimensional
##uran
##ACA
servirán
##mael
Deben
fantásticos
confiesa
patronal
##74
##91
protected
nutr
##emex
broche
cogiendo
apariciones
Juvent
Hop
Educativo
Bici
##ecerá
unica
Tradicional
Photo
confidencial
Modelos
##racho
atacado
gati
aéreos
seguidor
isl
cordob
LGB
Pau
renombre
Athletic
valla
Islámico
ebook
leones
##ocol
equipados
dialog
##iarse
##kespe
Tigres
Bendi
apaci
recarga
Kennedy
resumir
sugerir
MW
insignia
Wik
anuncian
##alles
Sando
Consegu
##94
felicito
Metodo
page
Antena
cue
cárceles
anchura
1954
trasladados
haberme
Dog
artefactos
ubican
##PC
realizo
Certificación
admin
Guayaquil
##ants
Olga
Maj
cogido
Aní
finalidades
discoteca
fragancia
dulz
Cuader
Consist
obtenidas
influyentes
##urce
[...]
